10,
ff,
fd,
fa,
fa,
fb,
fb,
fc,
fc,
fe,
0,
5,
7,
2,
2,
3,
0,
ff,
fe,
fd,
fc,
ff,
fc,
f7,
f6,
f7,
fa,
fd,
fd,
0,
3,
7,
7,
7,
5,
4,
0,
fd,
f8,
fa,
fd,
0,
f9,
f5,
f3,
f5,
f8,
fb,
fd,
1,
7,
a,
4,
8,
6,
3,
0,
1,
f9,
fe,
fd,
0,
f8,
f2,
f1,
f7,
fa,
f8,
f9,
3,
6,
3,
1,
0,
fe,
fb,
f8,
2,
3,
6,
ff,
2,
f5,
f2,
f5,
ff,
f3,
e9,
f5,
8,
8,
2,
f9,
1,
3,
fc,
f2,
fb,
0,
fe,
2,
3,
f3,
f5,
fc,
2,
fb,
f7,
fe,
9,
c,
ff,
f7,
ff,
b,
2,
f7,
fe,
0,
fe,
4,
0,
f6,
fe,
6,
8,
4,
1,
6,
b,
7,
fb,
f8,
0,
7,
5,
4,
ff,
fb,
2,
6,
0,
2,
c,
9,
10,
e,
8,
9,
fe,
fe,
0,
fb,
f5,
1,
9,
9,
fe,
f4,
1,
6,
0,
9,
d,
c,
10,
a,
9,
0,
f8,
fb,
fd,
f9,
f7,
fc,
4,
4,
fe,
f7,
ff,
2,
5,
6,
8,
b,
4,
fa,
f3,
f4,
f6,
f9,
4,
fd,
f8,
ff,
fe,
fe,
fb,
f6,
f6,
0,
3,
7,
8,
1,
fc,
ef,
ed,
ef,
f8,
f7,
fd,
fc,
ff,
1,
2,
3,
fa,
f3,
f5,
2,
2,
7,
5,
fc,
f7,
f1,
ef,
f5,
fe,
fb,
fc,
fb,
fa,
fd,
2,
2,
fc,
f4,
fc,
1,
2,
5,
3,
fb,
f3,
f0,
f4,
fb,
0,
4,
5,
7,
1,
1,
8,
3,
fe,
fe,
2,
3,
3,
3,
fe,
f7,
f5,
fa,
f9,
fd,
2,
4,
4,
fc,
fe,
2,
9,
5,
1,
2,
1,
5,
5,
4,
fc,
f9,
fc,
4,
5,
0,
2,
4,
1,
0,
0,
4,
8,
7,
7,
2,
3,
1,
1,
3,
fc,
f8,
fc,
4,
5,
2,
0,
1,
fe,
1,
7,
5,
3,
fe,
fe,
fe,
fe,
0,
0,
1,
fe,
fe,
fe,
ff,
fe,
fe,
fb,
fe,
fe,
3,
3,
0,
ff,
f7,
f8,
fa,
fc,
fc,
fe,
fd,
0,
ff,
3,
2,
ff,
f7,
f7,
fc,
ff,
ff,
3,
0,
0,
fd,
fd,
fd,
fd,
fd,
fe,
ff,
0,
0,
ff,
fd,
fd,
fe,
fe,
fe,
fe,
fe,
f9,
fa,
f9,
fa,
f9,
fa,
fa,
fa,
1,
6,
ff,
0,
fe,
fc,
fd,
fe,
fc,
ff,
ff,
fe,
fe,
fd,
f8,
f8,
fa,
f8,
f6,
fa,
2,
8,
ff,
0,
fe,
fc,
fd,
ff,
0,
5,
0,
fb,
fe,
fc,
fb,
fa,
f9,
f7,
f6,
f9,
0,
2,
ff,
0,
fe,
fe,
fe,
0,
4,
4,
fa,
fd,
fd,
fc,
1,
1,
fa,
fc,
f9,
ff,
2,
1,
fe,
fe,
fe,
fc,
fb,
0,
4,
0,
f7,
fa,
f9,
fd,
3,
2,
fc,
fc,
ff,
6,
2,
0,
fd,
fc,
0,
fa,
fe,
0,
0,
fa,
f2,
f4,
fc,
3,
6,
4,
1,
3,
7,
6,
ff,
4,
fd,
fc,
0,
fe,
fc,
fa,
f7,
f6,
f5,
f6,
3,
6,
8,
9,
7,
9,
b,
1,
fe,
2,
fc,
fb,
fd,
ff,
fb,
fd,
fa,
fd,
3,
6,
7,
3,
d,
d,
6,
fb,
f6,
f4,
f7,
fe,
fb,
fe,
fd,
fe,
0,
fe,
f9,
1,
9,
d,
a,
8,
7,
fd,
f0,
ea,
ef,
f2,
fb,
fa,
fd,
fd,
fc,
fc,
0,
ff,
1,
2,
8,
8,
8,
7,
ff,
fd,
f6,
f1,
f3,
f7,
f8,
f4,
0,
fd,
ff,
2,
1,
6,
9,
5,
2,
5,
3,
4,
8,
0,
f9,
f6,
f4,
f7,
f8,
f3,
fd,
f9,
0,
4,
4,
5,
7,
3,
0,
ff,
1,
8,
fe,
f9,
f7,
f7,
f6,
f7,
f7,
f4,
ff,
fa,
fe,
ff,
0,
2,
1,
ff,
0,
1,
7,
1,
f7,
fc,
fc,
f9,
f6,
f7,
f6,
f6,
1,
fd,
1,
5,
3,
3,
5,
2,
0,
5,
8,
fd,
f8,
fc,
fd,
f8,
f8,
f8,
f8,
f9,
0,
fb,
fe,
0,
fd,
fe,
2,
1,
3,
5,
2,
fe,
f9,
ff,
ff,
fb,
fb,
fb,
fa,
fb,
3,
ff,
2,
fd,
fb,
fd,
ff,
2,
3,
1,
0,
0,
fb,
ff,
fd,
fa,
fd,
fd,
fe,
fe,
3,
1,
2,
fd,
fb,
fa,
fc,
fd,
fe,
fd,
ff,
ff,
fb,
ff,
fc,
f9,
fd,
fe,
fe,
ff,
1,
1,
1,
0,
fc,
fa,
fb,
fd,
ff,
1,
1,
fe,
fc,
1,
fe,
fa,
fd,
ff,
0,
0,
ff,
0,
0,
0,
0,
0,
ff,
ff,
0,
0,
ff,
fc,
fb,
ff,
1,
1,
3,
4,
ff,
ff,
ff,
0,
0,
0,
1,
0,
0,
ff,
ff,
ff,
ff,
fe,
0,
ff,
2,
1,
1,
1,
0,
fe,
0,
ff,
fe,
0,
0,
ff,
fe,
fe,
fe,
fc,
fe,
0,
0,
fd,
ff,
fd,
fc,
fd,
ff,
ff,
3,
fd,
fd,
fd,
fd,
fd,
fc,
fb,
fa,
fa,
fc,
ff,
fd,
fa,
fd,
fe,
fb,
fc,
0,
5,
6,
fc,
fb,
fa,
fb,
f9,
f7,
f5,
f5,
f5,
fb,
fc,
fa,
fa,
fe,
fa,
fa,
3,
5,
8,
6,
f9,
f7,
f7,
f6,
f3,
ef,
f2,
f5,
fb,
ff,
2,
ff,
0,
ff,
ff,
4,
7,
4,
4,
7,
f4,
f3,
f4,
f2,
f0,
ef,
f6,
fe,
4,
b,
b,
9,
8,
6,
4,
6,
2,
4,
5,
8,
f2,
f2,
f4,
f3,
f7,
f9,
ff,
a,
f,
e,
e,
a,
8,
3,
0,
f9,
f9,
0,
4,
8,
f1,
f5,
fa,
fc,
fc,
2,
e,
9,
9,
7,
0,
1,
fe,
0,
fc,
f7,
fa,
ff,
3,
9,
f4,
f9,
fb,
fe,
0,
a,
9,
5,
1,
fc,
fb,
fa,
fc,
fd,
fd,
fe,
ff,
1,
5,
5,
f8,
f9,
f8,
fc,
3,
8,
5,
0,
fe,
0,
fe,
fb,
fc,
fe,
ff,
ff,
fd,
1,
2,
ff,
fd,
fc,
f7,
fc,
2,
6,
8,
fe,
fa,
fd,
fc,
ff,
fe,
fe,
fe,
fe,
fd,
fb,
fb,
fc,
fe,
1,
fa,
fc,
0,
5,
4,
fc,
f9,
f9,
f9,
0,
2,
3,
0,
fd,
f9,
fa,
fb,
fd,
2,
2,
fe,
fe,
ff,
0,
ff,
fa,
fb,
fb,
fb,
ff,
2,
0,
fb,
f8,
f7,
fa,
fc,
fe,
4,
6,
9,
6,
2,
1,
0,
fc,
fd,
fc,
fe,
ff,
fd,
fc,
f9,
f9,
fb,
fd,
fe,
ff,
6,
5,
8,
9,
4,
0,
ff,
1,
2,
fe,
fd,
fe,
fb,
fb,
fa,
fb,
fc,
ff,
0,
ff,
5,
4,
6,
3,
ff,
fe,
0,
1,
1,
fd,
fc,
fc,
fc,
fb,
fa,
fb,
fd,
ff,
1,
0,
5,
5,
5,
2,
1,
1,
3,
3,
0,
fd,
fb,
fc,
fd,
fd,
fc,
fd,
fe,
ff,
0,
0,
ff,
0,
0,
ff,
fb,
f8,
f8,
fd,
ff,
fc,
fc,
fd,
3,
8,
d,
e,
7,
1,
fe,
fa,
f8,
1,
ff,
fc,
f9,
f5,
f8,
ff,
2,
1,
1,
4,
7,
b,
a,
e,
8,
ff,
fa,
f6,
f5,
1,
fe,
f9,
f6,
f4,
fb,
ff,
2,
3,
4,
8,
a,
b,
a,
a,
4,
fd,
f4,
f1,
f4,
1,
fd,
f5,
f3,
f5,
fb,
fe,
fa,
fe,
0,
8,
9,
a,
10,
c,
2,
0,
f5,
ee,
f2,
2,
fb,
f2,
f1,
f8,
fd,
fd,
f7,
fd,
5,
c,
b,
b,
10,
d,
5,
0,
f7,
ee,
f2,
3,
fb,
f4,
f6,
fa,
fe,
ff,
fb,
fd,
b,
11,
a,
8,
e,
f,
b,
1,
f3,
f1,
f2,
2,
fd,
fb,
f9,
fc,
3,
3,
fc,
1,
14,
13,
b,
6,
9,
9,
7,
fb,
f2,
f2,
f4,
ff,
fd,
fc,
fb,
fd,
2,
fe,
fc,
0,
f,
a,
6,
5,
5,
6,
3,
f6,
f0,
f2,
fb,
fe,
3,
fb,
f9,
fa,
ff,
fc,
fc,
4,
8,
2,
fe,
1,
1,
6,
3,
f7,
f3,
f6,
ff,
1,
7,
3,
f8,
fc,
f9,
fe,
fc,
2,
6,
7,
8,
5,
fe,
0,
0,
f9,
f4,
f7,
fc,
1,
8,
6,
fc,
fa,
f6,
fb,
fa,
2,
3,
8,
5,
fe,
fe,
1,
2,
ff,
f9,
f8,
f9,
2,
7,
2,
f6,
f6,
f4,
f5,
f6,
f7,
fc,
fe,
0,
0,
ff,
ff,
2,
0,
fc,
fa,
f8,
1,
3,
ff,
f7,
f3,
f4,
f5,
f3,
f4,
f8,
fa,
fc,
1,
3,
3,
1,
fe,
fc,
fa,
f8,
3,
0,
fb,
f6,
f6,
f7,
f9,
fc,
fb,
f8,
f6,
fa,
ff,
2,
5,
0,
0,
fe,
fb,
fa,
3,
1,
fc,
fb,
fc,
fb,
fe,
1,
fc,
f8,
f7,
f8,
fc,
ff,
3,
2,
0,
ff,
fe,
fb,
1,
1,
0,
1,
0,
fe,
1,
0,
fd,
fb,
fa,
fb,
0,
1,
3,
4,
3,
1,
fe,
fe,
0,
2,
0,
3,
2,
fe,
fe,
fe,
fb,
fc,
fd,
fd,
4,
4,
6,
8,
6,
4,
2,
2,
1,
0,
fe,
fd,
fe,
f8,
fd,
fd,
fb,
ff,
ff,
1,
7,
6,
b,
d,
a,
6,
4,
3,
ff,
0,
0,
ff,
fc,
fe,
fe,
fc,
fb,
fe,
1,
0,
ff,
fe,
fe,
fe,
f9,
f5,
f6,
fc,
ff,
0,
1,
0,
fc,
fe,
fd,
f8,
fc,
ff,
2,
4,
2,
fd,
ff,
fd,
f8,
f5,
f7,
fe,
5,
ff,
3,
2,
fd,
ff,
fd,
fa,
3,
4,
2,
2,
0,
ff,
1,
fa,
f6,
f6,
fa,
4,
5,
ff,
4,
3,
0,
1,
fb,
fd,
1,
2,
5,
1,
fc,
fe,
0,
f8,
f7,
f7,
fe,
5,
6,
fe,
4,
7,
5,
1,
fd,
ff,
3,
3,
5,
fd,
fb,
0,
1,
fa,
f2,
f3,
ff,
8,
6,
fd,
3,
b,
4,
7,
fe,
1,
1,
2,
fe,
f9,
fa,
0,
ff,
f7,
f4,
fc,
3,
3,
1,
fd,
2,
7,
4,
2,
fd,
1,
0,
fb,
f5,
f8,
fa,
fd,
fe,
fa,
2,
d,
a,
4,
fe,
fb,
ff,
4,
6,
ff,
3,
1,
fe,
fc,
f7,
fd,
f9,
2,
4,
9,
c,
d,
4,
fb,
fe,
f8,
fe,
1,
1,
fe,
fe,
f9,
fa,
fc,
1,
6,
9,
7,
5,
2,
1,
fb,
f4,
f1,
f7,
f8,
fd,
1,
fb,
fc,
fc,
fb,
fa,
6,
b,
a,
b,
6,
2,
fa,
f3,
ea,
e9,
ee,
ed,
f9,
f9,
fe,
0,
fe,
fe,
4,
6,
4,
4,
3,
7,
a,
0,
fa,
f1,
ee,
ef,
f2,
f1,
f9,
f7,
fe,
ff,
fd,
0,
7,
5,
f9,
f9,
ff,
d,
4,
ff,
f9,
f4,
f3,
f3,
f4,
f3,
fd,
fa,
1,
ff,
2,
1,
2,
f9,
f9,
0,
7,
9,
fe,
0,
fc,
f7,
f6,
f5,
f4,
f6,
fe,
fa,
5,
8,
3,
fe,
fd,
fe,
3,
5,
8,
1,
fc,
ff,
ff,
fa,
f8,
f8,
f8,
f9,
0,
f9,
4,
5,
fd,
fc,
0,
4,
5,
7,
4,
ff,
fb,
1,
2,
fd,
fb,
fb,
fb,
fc,
4,
fe,
4,
3,
0,
1,
3,
8,
7,
4,
0,
ff,
fe,
0,
fe,
fb,
fc,
fd,
fe,
fe,
3,
fe,
1,
0,
0,
0,
0,
2,
1,
fd,
fd,
fe,
fd,
ff,
fd,
fa,
fc,
fd,
fe,
ff,
2,
0,
fe,
0,
ff,
fd,
fe,
ff,
ff,
ff,
ff,
fe,
fd,
0,
fe,
fa,
fd,
ff,
ff,
ff,
ff,
0,
fd,
fb,
fe,
4,
4,
2,
1,
5,
2,
1,
fd,
fb,
ff,
2,
4,
5,
9,
6,
fd,
1,
fd,
fd,
1,
5,
ff,
ff,
6,
7,
2,
fe,
fd,
fc,
fb,
fe,
2,
9,
d,
8,
fd,
1,
fb,
fd,
5,
3,
fe,
4,
6,
4,
3,
fc,
fd,
f6,
f5,
f9,
fe,
b,
11,
f,
9,
3,
fe,
ff,
fe,
1,
ff,
0,
3,
4,
ff,
fa,
fb,
f7,
f4,
f7,
ff,
e,
19,
16,
f,
2,
3,
3,
3,
3,
fd,
3,
5,
fa,
fc,
fe,
fb,
fb,
f7,
f6,
ff,
11,
1a,
15,
9,
1,
6,
3,
8,
fb,
fa,
fc,
fa,
fd,
3,
9,
0,
fd,
f8,
f3,
f9,
d,
1d,
13,
b,
2,
5,
3,
2,
0,
fa,
f8,
f9,
fd,
3,
2,
0,
fd,
0,
fd,
6,
17,
20,
15,
b,
5,
b,
7,
6,
0,
f7,
f8,
2,
0,
fd,
fc,
2,
3,
4,
f9,
3,
14,
1f,
17,
6,
9,
d,
9,
9,
3,
fc,
4,
2,
f9,
f7,
2,
ff,
fb,
f8,
ed,
f6,
9,
1e,
1b,
4,
d,
d,
a,
11,
4,
0,
1,
fe,
fb,
fd,
fb,
f9,
f3,
e9,
e9,
f0,
6,
16,
11,
a,
c,
b,
3,
7,
7,
1,
2,
fd,
0,
fb,
f9,
fc,
f8,
f6,
ec,
ed,
fb,
5,
d,
e,
a,
d,
fe,
f6,
f8,
f7,
fc,
f8,
1,
f9,
f6,
f6,
fa,
f6,
ef,
fc,
3,
13,
10,
c,
8,
10,
2,
fd,
f6,
ee,
fb,
1,
ff,
fd,
f9,
f6,
f2,
ef,
f6,
2,
7,
f,
10,
e,
6,
e,
6,
ff,
fb,
f9,
fd,
fc,
fc,
fd,
f6,
f3,
f3,
f6,
f7,
2,
8,
c,
d,
a,
1,
a,
3,
0,
1,
1,
fa,
f7,
f8,
f8,
f4,
f3,
f3,
f9,
fe,
2,
a,
e,
a,
6,
fe,
8,
6,
5,
1,
ff,
fd,
fb,
fd,
fb,
f9,
f6,
f8,
fa,
ff,
3,
a,
a,
8,
2,
fc,
1,
4,
3,
2,
4,
5,
2,
1,
0,
fc,
fb,
fd,
ff,
3,
9,
b,
9,
4,
0,
fe,
fd,
2,
3,
4,
a,
c,
8,
7,
2,
0,
2,
4,
4,
7,
9,
6,
3,
1,
1,
ff,
ff,
fd,
fd,
fb,
f9,
f9,
fb,
fe,
1,
0,
fc,
f4,
f4,
f7,
f8,
fd,
fe,
ff,
0,
ff,
ff,
fd,
fe,
fc,
fa,
ff,
3,
2,
ff,
fb,
fb,
fe,
fc,
fb,
fb,
ff,
ff,
fd,
fe,
2,
0,
fe,
fd,
fb,
fd,
4,
3,
fc,
f9,
fe,
3,
5,
8,
5,
0,
fd,
fe,
1,
4,
4,
3,
fe,
f7,
fc,
3,
4,
2,
fb,
fe,
3,
f,
16,
13,
f,
5,
fe,
fe,
fe,
6,
6,
1,
fe,
fa,
fc,
4,
7,
1,
1,
6,
d,
19,
20,
17,
1b,
10,
e,
4,
fe,
0,
3,
fb,
f3,
fa,
3,
2,
1,
2,
2,
f,
f,
10,
b,
f,
14,
d,
15,
f,
3,
fc,
fb,
f7,
f3,
fe,
2,
3,
2,
fa,
4,
f,
6,
1,
1,
fd,
2,
4,
e,
e,
3,
fe,
f8,
fb,
fd,
0,
fb,
f9,
f5,
fd,
7,
5,
f8,
f5,
f5,
f2,
fa,
fc,
0,
0,
0,
0,
fb,
fb,
fd,
f7,
f7,
f7,
f8,
ff,
fe,
f8,
f1,
ec,
f2,
f8,
fc,
f8,
f9,
fb,
fe,
4,
5,
fb,
f8,
f0,
fa,
ff,
3,
fe,
f7,
f4,
ed,
f0,
f5,
fd,
fd,
fe,
fb,
fa,
4,
d,
5,
fd,
f3,
f8,
0,
9,
6,
0,
fb,
f9,
f4,
f7,
ff,
6,
3,
0,
f9,
f8,
0,
3,
ff,
ff,
fe,
fd,
2,
4,
3,
1,
ff,
fd,
fc,
2,
6,
7,
2,
fc,
f8,
f6,
fc,
fe,
0,
fe,
5,
fa,
0,
fe,
f8,
fa,
fc,
1,
5,
3,
3,
fd,
fc,
fc,
f8,
fb,
ff,
1,
fe,
ff,
0,
f8,
fc,
fb,
f9,
fa,
2,
4,
5,
fc,
fa,
fb,
fa,
fb,
fb,
fd,
1,
ff,
fb,
2,
fb,
fa,
2,
4,
fd,
0,
3,
4,
ff,
2,
3,
fc,
f9,
f8,
fd,
fe,
1,
fa,
fb,
3,
fd,
0,
0,
2,
fc,
3,
6,
6,
5,
8,
6,
fd,
fd,
fe,
ff,
fd,
fc,
fd,
fc,
3,
ff,
fe,
fa,
fa,
f6,
fd,
0,
6,
6,
6,
3,
1,
1,
fd,
fc,
fb,
fe,
fe,
fe,
3,
ff,
f9,
f9,
f6,
f7,
fc,
ff,
4,
7,
5,
3,
3,
1,
fe,
fc,
fd,
ff,
ff,
ff,
ff,
0,
3,
3,
1,
fd,
fc,
f9,
f9,
fa,
f9,
f7,
f2,
f0,
f5,
fe,
6,
7,
5,
3,
4,
1,
2,
1,
fe,
fe,
0,
fc,
fa,
fa,
f9,
f3,
ec,
ec,
f1,
fa,
4,
7,
7,
6,
6,
1,
2,
0,
fe,
0,
0,
fd,
fa,
f6,
f4,
ed,
e6,
e5,
e9,
f4,
2,
c,
d,
b,
5,
0,
1,
1,
ff,
0,
ff,
fc,
fa,
f7,
f0,
e9,
e4,
e0,
e3,
ed,
fb,
9,
d,
9,
fe,
ff,
4,
4,
0,
fc,
ff,
ff,
3,
1,
f6,
eb,
e8,
e2,
df,
ea,
fa,
4,
a,
7,
2,
1,
9,
7,
fd,
f6,
fd,
4,
6,
6,
0,
f8,
f6,
ea,
e3,
ed,
fa,
1,
7,
3,
0,
2,
a,
4,
f8,
f6,
1,
6,
3,
9,
8,
6,
fe,
ef,
eb,
f0,
fa,
fb,
1,
ff,
fc,
4,
9,
6,
ff,
ff,
4,
fc,
1,
11,
f,
4,
fb,
f2,
f3,
f7,
f9,
fb,
fb,
ff,
fe,
3,
6,
8,
6,
fe,
f6,
f8,
8,
1b,
11,
ff,
f8,
f5,
f4,
f5,
f6,
f6,
f7,
fe,
1,
2,
7,
6,
5,
fb,
f5,
fb,
d,
18,
11,
2,
f8,
f5,
f7,
f9,
f9,
f4,
f8,
fe,
3,
ff,
ff,
4,
4,
fd,
f9,
1,
f,
f,
b,
4,
fd,
fa,
fc,
fe,
fb,
f9,
fa,
fa,
3,
ff,
fd,
5,
1,
fc,
fb,
5,
12,
a,
3,
0,
fb,
f9,
fb,
fa,
f8,
f7,
f5,
f9,
3,
3,
0,
1,
fd,
fe,
fb,
2,
7,
7,
fd,
f1,
f1,
f5,
f7,
f7,
f7,
f7,
f6,
fb,
2,
0,
fd,
fd,
0,
1,
ff,
0,
2,
fc,
f6,
f0,
f2,
f4,
f6,
f7,
f9,
fa,
fa,
fe,
ff,
ff,
f9,
f9,
ff,
2,
6,
3,
1,
f9,
f4,
f5,
f6,
f7,
f6,
f8,
fc,
fd,
fb,
fc,
fe,
ff,
fa,
f9,
f9,
fe,
ff,
0,
fb,
f8,
fa,
fc,
fe,
fe,
fd,
ff,
ff,
fc,
fa,
fb,
fd,
ff,
fe,
fc,
f9,
fd,
0,
fe,
fa,
fa,
fd,
ff,
2,
3,
0,
0,
fd,
fb,
fb,
fc,
fd,
ff,
0,
ff,
fd,
fe,
fe,
fc,
fb,
fb,
fc,
fe,
2,
3,
2,
ff,
fd,
fc,
fc,
fe,
0,
ff,
0,
0,
1,
4,
7,
8,
7,
4,
3,
2,
ff,
ff,
0,
ff,
fe,
fd,
fd,
fe,
fe,
ff,
0,
1,
2,
6,
9,
4,
0,
0,
3,
1,
fe,
ff,
0,
fd,
fd,
fc,
fc,
fb,
fd,
fe,
1,
1,
0,
1,
3,
fe,
fa,
fc,
5,
4,
1,
fe,
fe,
fc,
fd,
fd,
fb,
fa,
fc,
fe,
1,
1,
fb,
fb,
fc,
fb,
fb,
fe,
2,
2,
ff,
fd,
fb,
fa,
fc,
fb,
f9,
f8,
fa,
fe,
1,
ff,
f9,
f6,
f9,
fc,
fd,
fe,
fe,
2,
ff,
fc,
f9,
f9,
fb,
fa,
f8,
f8,
fa,
fe,
2,
ff,
f9,
f5,
fa,
fe,
fe,
fe,
ff,
0,
fe,
fd,
f7,
f8,
fa,
f9,
f9,
f9,
f8,
fb,
2,
fe,
f9,
f6,
fb,
fd,
fd,
fe,
fc,
fc,
fb,
fa,
f7,
f9,
fc,
fc,
fd,
fc,
fb,
fa,
1,
fd,
f9,
f7,
fa,
fa,
fd,
fc,
fa,
fb,
f9,
f9,
f9,
fd,
2,
1,
1,
ff,
fc,
fa,
1,
fd,
f9,
f8,
fa,
fd,
fc,
fd,
fd,
fe,
fa,
fb,
fd,
3,
8,
7,
6,
2,
ff,
ff,
1,
fe,
fe,
fb,
fc,
fb,
fe,
0,
3,
2,
fc,
fe,
3,
5,
4,
2,
0,
0,
1,
ff,
0,
ff,
2,
fe,
f9,
f9,
fe,
1,
5,
2,
fb,
fc,
1,
2,
ff,
fb,
fa,
fc,
fd,
fd,
0,
fe,
4,
3,
fb,
f9,
fb,
ff,
0,
fe,
fd,
ff,
2,
1,
fe,
fb,
fa,
fc,
fd,
fc,
ff,
fd,
1,
6,
1,
fc,
fc,
fe,
fd,
fb,
fe,
ff,
0,
ff,
ff,
fd,
fb,
fd,
fd,
fd,
ff,
fc,
ff,
2,
fe,
fd,
fe,
fc,
f8,
f9,
0,
2,
3,
2,
4,
2,
fe,
fd,
fd,
fe,
0,
fd,
fd,
0,
fe,
ff,
ff,
fd,
fc,
ff,
3,
7,
6,
6,
5,
2,
fd,
fd,
fd,
ff,
0,
fe,
fd,
ff,
ff,
1,
2,
1,
0,
2,
4,
5,
4,
2,
1,
fd,
fa,
fc,
fd,
ff,
0,
ff,
ff,
ff,
0,
1,
3,
3,
3,
3,
4,
3,
2,
0,
ff,
fc,
fc,
fe,
fe,
fe,
0,
0,
ff,
ff,
0,
1,
0,
0,
0,
0,
1,
0,
ff,
ff,
fe,
fe,
fe,
ff,
ff,
ff,
ff,
0,
ff,
0,
2,
1,
0,
ff,
fe,
ff,
0,
ff,
0,
1,
1,
ff,
fc,
fd,
fd,
fd,
fe,
ff,
0,
1,
1,
fd,
fa,
f9,
0,
3,
5,
5,
2,
5,
7,
4,
0,
fe,
fd,
fc,
fb,
fe,
ff,
fd,
fe,
fc,
f8,
f9,
2,
6,
4,
3,
1,
3,
4,
3,
2,
0,
ff,
fe,
fb,
fd,
fd,
fc,
1,
ff,
fe,
2,
1,
0,
fe,
fe,
ff,
0,
2,
0,
fd,
fb,
fd,
ff,
f9,
fd,
fc,
fd,
ff,
1,
fe,
fe,
1,
fe,
1,
1,
0,
fe,
ff,
fe,
fb,
f7,
f7,
fb,
f9,
fc,
fe,
ff,
1,
1,
0,
1,
6,
5,
2,
fd,
fd,
fd,
fc,
fe,
fa,
f5,
f4,
f5,
f7,
fc,
fd,
0,
2,
0,
2,
2,
2,
2,
fc,
f9,
fc,
0,
fd,
fa,
f7,
f5,
f5,
fc,
f8,
fb,
fd,
fc,
ff,
fb,
fd,
0,
fd,
fd,
f7,
f6,
f8,
fd,
fc,
fc,
fa,
fb,
1,
5,
1,
fb,
ff,
fd,
fa,
f6,
fb,
4,
3,
0,
fe,
fc,
fc,
fa,
ff,
6,
8,
b,
b,
f,
f,
fb,
0,
4,
0,
fb,
2,
8,
b,
e,
9,
3,
7,
7,
8,
b,
e,
e,
a,
9,
e,
fe,
0,
8,
5,
fb,
ff,
3,
3,
4,
0,
ff,
3,
4,
3,
1,
0,
6,
2,
4,
6,
0,
1,
a,
a,
2,
ff,
fa,
f9,
f8,
fa,
0,
4,
1,
0,
fc,
fa,
fd,
fa,
fa,
f8,
0,
3,
8,
5,
2,
1,
fd,
fc,
ff,
fe,
0,
1,
ff,
ff,
fc,
f6,
f5,
f4,
f6,
f7,
0,
2,
2,
ff,
f8,
fb,
fd,
fc,
fc,
fe,
2,
1,
1,
1,
0,
fc,
f9,
f8,
f9,
fb,
0,
ff,
1,
ff,
fe,
ff,
0,
1,
ff,
1,
1,
4,
4,
1,
2,
ff,
fb,
fb,
fb,
fc,
0,
fe,
0,
0,
0,
1,
3,
4,
2,
2,
2,
4,
2,
0,
1,
fe,
fb,
fe,
fd,
fe,
0,
fe,
fd,
fe,
fe,
1,
3,
3,
2,
0,
0,
2,
1,
1,
fe,
fb,
fc,
fe,
ff,
ff,
0,
ff,
fe,
fe,
fe,
ff,
fe,
fd,
fd,
fc,
ff,
1,
1,
0,
fc,
fc,
fd,
ff,
ff,
0,
ff,
0,
0,
0,
ff,
ff,
ff,
ff,
fd,
ff,
1,
3,
1,
fd,
1,
4,
3,
1,
fe,
fa,
0,
0,
1,
0,
ff,
fe,
fe,
fe,
fc,
fc,
ff,
0,
fc,
fd,
2,
4,
2,
5,
2,
f6,
fb,
1,
1,
1,
ff,
fc,
fc,
fd,
fe,
fd,
ff,
0,
fd,
fe,
1,
4,
7,
9,
6,
fb,
fc,
3,
2,
3,
fe,
fc,
fd,
2,
3,
3,
3,
5,
fd,
fd,
0,
1,
2,
7,
2,
0,
1,
3,
8,
6,
ff,
fa,
ff,
3,
7,
6,
3,
fe,
0,
1,
2,
1,
ff,
ff,
1,
0,
7,
6,
4,
fe,
fc,
f9,
ff,
3,
3,
3,
fd,
fb,
ff,
4,
2,
fc,
0,
3,
6,
6,
9,
1,
ff,
fa,
f6,
fc,
2,
6,
0,
1,
fe,
2,
6,
2,
fd,
f6,
fd,
2,
9,
9,
6,
fe,
1,
fc,
f6,
fd,
5,
1,
fd,
1,
0,
2,
0,
0,
fc,
f4,
fb,
8,
b,
d,
8,
fa,
1,
fb,
fc,
1,
1,
f9,
f6,
fe,
ff,
3,
ff,
fd,
f7,
f5,
fe,
b,
d,
9,
9,
0,
2,
fa,
fa,
1,
fe,
f6,
f4,
fd,
2,
6,
ff,
f9,
f5,
fa,
2,
9,
8,
6,
7,
fd,
4,
fd,
2,
4,
fd,
f9,
f8,
fa,
fd,
1,
fc,
f5,
f5,
fe,
7,
9,
7,
5,
5,
0,
2,
0,
1,
ff,
f8,
f9,
ff,
fa,
fe,
5,
1,
f9,
f9,
1,
7,
8,
1,
2,
3,
3,
1,
5,
0,
fb,
fd,
fc,
2,
1,
ff,
0,
2,
4,
2,
8,
9,
1,
fc,
ff,
ff,
1,
fc,
fa,
fe,
0,
ff,
fd,
0,
0,
ff,
fe,
fd,
ff,
7,
6,
1,
fb,
fa,
fd,
fc,
1,
0,
fc,
fb,
2,
ff,
fd,
0,
0,
2,
2,
4,
4,
5,
1,
ff,
fb,
fc,
fc,
fc,
0,
fe,
fe,
fd,
2,
ff,
fe,
ff,
0,
2,
2,
4,
2,
0,
0,
fc,
fb,
fb,
fb,
fc,
0,
0,
fe,
fe,
ff,
1,
ff,
2,
2,
1,
5,
7,
4,
3,
ff,
fb,
fa,
f9,
fc,
fd,
0,
0,
ff,
ff,
fe,
0,
fe,
0,
2,
5,
6,
7,
5,
2,
fd,
fb,
fa,
fb,
fd,
ff,
ff,
fd,
fa,
f7,
f9,
fa,
f7,
f5,
f7,
fc,
0,
2,
1,
ff,
fd,
ff,
1,
ff,
1,
1,
fe,
fe,
fa,
fa,
fb,
fb,
f7,
f5,
f1,
f7,
fb,
ff,
2,
ff,
fd,
fd,
fe,
ff,
fe,
0,
fe,
0,
0,
3,
7,
3,
2,
1,
ff,
ff,
3,
4,
5,
ff,
fc,
0,
1,
fd,
fb,
fc,
fe,
5,
a,
9,
b,
15,
16,
13,
f,
a,
5,
6,
3,
0,
fb,
fd,
0,
0,
fd,
f8,
fb,
8,
b,
5,
d,
f,
13,
18,
e,
f,
7,
6,
0,
ff,
f9,
fa,
fe,
ff,
fd,
f9,
f9,
b,
d,
3,
fb,
fd,
a,
e,
5,
b,
8,
7,
4,
ff,
fd,
fb,
ff,
1,
0,
f9,
f7,
d,
7,
f5,
e6,
e8,
fa,
fc,
f4,
fc,
1,
ff,
3,
6,
0,
1,
ff,
1,
fe,
f9,
fc,
a,
f7,
e0,
de,
e8,
ef,
eb,
ea,
f8,
ff,
fc,
2,
2,
fc,
0,
ff,
0,
2,
fd,
fc,
4,
f2,
df,
ef,
fc,
f8,
f4,
f5,
f6,
fd,
0,
3,
fd,
f8,
0,
4,
7,
d,
5,
c,
0,
ef,
ed,
0,
3,
fd,
2,
ff,
ff,
2,
4,
ff,
fa,
f5,
fb,
ff,
ff,
2,
5,
6,
ff,
f9,
fc,
2,
6,
7,
3,
4,
1,
0,
6,
2,
fd,
fe,
fa,
f3,
f8,
fd,
7,
2,
fd,
ff,
0,
1,
ff,
fd,
fc,
fb,
1,
7,
9,
1,
fa,
f9,
f5,
f7,
fb,
6,
7,
0,
fb,
fe,
ff,
fe,
f8,
f8,
f8,
fa,
2,
b,
4,
fb,
f9,
fd,
fe,
0,
3,
6,
2,
fa,
fc,
fd,
fe,
fb,
f7,
fa,
fc,
fe,
3,
8,
3,
f9,
f6,
f9,
f9,
ff,
1,
2,
fe,
f6,
fe,
fd,
fb,
f9,
fb,
fc,
fe,
fd,
3,
8,
4,
fc,
fb,
fd,
fc,
0,
4,
4,
fe,
fa,
ff,
0,
fb,
fd,
ff,
fe,
fd,
2,
4,
5,
5,
ff,
fd,
fd,
ff,
2,
3,
3,
0,
fd,
0,
0,
0,
1,
ff,
0,
ff,
0,
2,
3,
3,
ff,
ff,
2,
0,
1,
2,
1,
0,
0,
0,
1,
4,
2,
ff,
fe,
fe,
1,
3,
1,
ff,
fd,
ff,
3,
1,
0,
ff,
ff,
ff,
0,
ff,
5,
8,
b,
b,
3,
fa,
f5,
f1,
f1,
f3,
f8,
fc,
fe,
fd,
ff,
ff,
ff,
fe,
0,
3,
6,
a,
e,
a,
ff,
f5,
ee,
ec,
f0,
f4,
fa,
fd,
fd,
fc,
fd,
fd,
ff,
fb,
fd,
2,
9,
9,
b,
6,
f6,
ee,
e8,
ec,
f7,
fe,
1,
ff,
fe,
fd,
fd,
fb,
fd,
fa,
fc,
1,
b,
9,
9,
fe,
f1,
eb,
e9,
f0,
ff,
4,
5,
4,
0,
fb,
fb,
fd,
0,
fa,
fc,
2,
d,
b,
5,
fa,
f2,
eb,
ed,
f9,
7,
9,
5,
ff,
fb,
f5,
f7,
fc,
fd,
fb,
ff,
2,
c,
9,
4,
fa,
f0,
ea,
ef,
fe,
9,
8,
3,
fb,
f6,
f2,
f4,
fa,
fb,
fc,
1,
8,
a,
9,
5,
fe,
f9,
f0,
f0,
fa,
4,
5,
fd,
f8,
f9,
f8,
f8,
fa,
fa,
fa,
ff,
8,
6,
6,
5,
3,
0,
f6,
f7,
f9,
ff,
6,
fd,
fc,
fc,
fb,
f7,
f8,
fa,
f9,
1,
b,
0,
3,
5,
7,
5,
fe,
f9,
fd,
3,
5,
1,
fd,
f9,
f4,
f4,
f8,
fd,
ff,
6,
b,
fe,
5,
4,
3,
6,
3,
fd,
fd,
1,
ff,
0,
f9,
f4,
f4,
f9,
ff,
3,
3,
6,
a,
fc,
1,
1,
2,
3,
6,
3,
fe,
ff,
1,
fd,
fb,
f8,
fd,
8,
8,
8,
6,
0,
4,
fc,
fb,
fc,
ff,
0,
0,
ff,
fa,
fb,
fd,
f9,
f7,
f7,
ff,
b,
c,
6,
3,
fd,
2,
fd,
fa,
fb,
f9,
fc,
fd,
fd,
fc,
fb,
fb,
f8,
f7,
fa,
fd,
4,
7,
5,
0,
0,
3,
fd,
fa,
f9,
f7,
fb,
fc,
ff,
2,
fc,
fa,
fb,
ff,
fe,
fd,
ff,
ff,
fc,
0,
2,
3,
fc,
fb,
fb,
fa,
fb,
fd,
0,
1,
fd,
fa,
fc,
1,
4,
ff,
ff,
fe,
ff,
fc,
0,
1,
fb,
fb,
fc,
fb,
fc,
fc,
fc,
fc,
fd,
fc,
fe,
0,
2,
3,
4,
1,
0,
fc,
ff,
1,
fc,
fa,
fb,
fb,
fd,
fe,
fc,
fb,
fb,
fb,
fb,
fc,
ff,
ff,
1,
2,
0,
0,
0,
1,
fe,
fc,
fb,
fa,
fa,
fb,
fd,
fd,
fd,
fe,
fd,
fe,
ff,
fe,
1,
3,
2,
2,
1,
1,
ff,
0,
fe,
fd,
fe,
fb,
fb,
fa,
f5,
f7,
1,
7,
6,
8,
e,
e,
d,
2,
3,
2,
fb,
0,
fd,
fb,
fd,
fd,
f9,
ff,
f9,
fa,
1,
b,
a,
c,
f,
18,
f,
c,
7,
5,
fd,
0,
fb,
fa,
fb,
f7,
f8,
0,
fc,
fc,
6,
d,
7,
11,
1d,
1e,
13,
7,
2,
1,
2,
0,
fb,
fa,
fc,
fd,
fe,
fd,
fc,
2,
9,
e,
e,
17,
12,
0,
fb,
ff,
6,
ff,
fd,
ff,
fd,
fe,
fe,
3,
fb,
f5,
f8,
1,
a,
c,
f,
a,
f6,
e0,
db,
f1,
fe,
4,
fc,
4,
fe,
fd,
0,
1,
f7,
f9,
fe,
9,
11,
12,
b,
fa,
eb,
da,
dd,
ee,
f8,
fe,
fd,
2,
fb,
fc,
fe,
fc,
f8,
ff,
fe,
5,
c,
c,
5,
f5,
ef,
e9,
ed,
f5,
f1,
f8,
fb,
3,
1,
0,
fe,
0,
0,
ff,
0,
ff,
fe,
3,
1,
f4,
fa,
f8,
f9,
f0,
ee,
f6,
fa,
1,
5,
fe,
fd,
0,
1,
3,
2,
fa,
fa,
2,
fe,
fe,
7,
8,
fb,
eb,
ef,
f5,
f9,
fd,
3,
2,
ff,
5,
0,
0,
fa,
fa,
1,
1,
3,
8,
c,
5,
ff,
f8,
f8,
f8,
f8,
1,
3,
fe,
fa,
1,
ff,
fe,
fb,
1,
2,
4,
6,
4,
2,
2,
0,
fd,
fe,
fa,
f8,
4,
5,
2,
2,
7,
0,
0,
fa,
4,
fe,
2,
0,
7,
fa,
f9,
ff,
fc,
0,
fe,
fb,
1,
5,
3,
1,
fc,
fb,
fa,
f9,
fd,
fd,
fb,
fe,
4,
0,
2,
2,
fb,
f7,
fb,
f8,
1,
2,
fe,
0,
0,
fe,
fd,
ff,
2,
fe,
0,
4,
3,
0,
ff,
0,
fc,
fd,
ff,
f6,
fe,
5,
fa,
fe,
fe,
1,
fe,
fb,
fe,
fc,
fb,
fb,
fe,
ff,
f7,
fb,
fc,
2,
fd,
f7,
fa,
2,
0,
3,
fa,
fb,
fd,
fb,
fb,
fa,
ff,
0,
8,
5,
fd,
1,
6,
3,
fc,
f8,
f9,
fb,
fe,
0,
fc,
ff,
2,
2,
3,
1,
2,
fe,
ff,
ff,
0,
7,
7,
2,
fb,
fa,
fa,
f7,
f7,
f7,
fd,
2,
6,
a,
7,
7,
3,
ff,
fe,
fd,
2,
4,
3,
ff,
fc,
fc,
ff,
0,
ff,
fe,
fd,
ff,
4,
1,
fd,
f9,
f8,
fa,
fc,
fa,
f9,
fa,
ff,
1,
4,
a,
a,
ff,
fc,
fa,
fc,
1,
7,
6,
fe,
f9,
f8,
fd,
fc,
fd,
fe,
ff,
1,
1,
6,
5,
8,
ff,
fa,
fb,
fd,
1,
7,
5,
fe,
fa,
0,
3,
1,
fc,
ff,
fc,
fa,
fd,
ff,
0,
1,
fe,
f8,
fb,
0,
4,
0,
fe,
f8,
fa,
fc,
0,
fd,
fe,
fe,
fc,
fd,
fa,
f2,
f7,
fd,
fc,
f8,
fe,
fb,
ff,
ff,
fa,
fb,
ff,
fd,
fe,
fa,
ff,
fa,
f9,
fa,
fb,
fb,
f7,
f9,
fa,
f6,
f9,
f0,
f8,
fe,
f4,
f5,
fd,
4,
4,
0,
3,
fc,
fa,
f9,
1,
fb,
fd,
f7,
fc,
fc,
fa,
f7,
fe,
fd,
ec,
f0,
3,
7,
8,
fe,
fd,
fd,
f9,
f7,
5,
3,
fd,
fa,
ff,
ff,
4,
fa,
fb,
f4,
f3,
fc,
7,
b,
7,
3,
fc,
fb,
f7,
fa,
ff,
6,
3,
ff,
4,
1,
3,
fa,
f1,
f1,
f9,
3,
f,
a,
8,
6,
f9,
f2,
f4,
f5,
fd,
3,
fd,
f9,
b,
6,
5,
fe,
f4,
fe,
fe,
7,
b,
4,
fd,
fd,
f6,
f0,
f2,
fb,
fe,
1,
2,
fc,
10,
6,
8,
9,
8,
11,
f,
b,
6,
fd,
f7,
f3,
f5,
f7,
ff,
4,
ff,
3,
4,
f9,
d,
1,
8,
9,
e,
11,
10,
8,
3,
f9,
f6,
f9,
4,
8,
9,
2,
2,
a,
3,
fc,
8,
6,
4,
4,
8,
c,
e,
9,
fe,
fb,
f6,
f8,
1,
5,
8,
8,
d,
a,
0,
4,
6,
8,
2,
7,
d,
f,
10,
3,
fb,
fc,
f9,
fa,
fe,
4,
7,
7,
b,
a,
4,
3,
2,
6,
3,
ff,
3,
2,
0,
fb,
f9,
ff,
fd,
f8,
f8,
fd,
0,
6,
a,
7,
2,
0,
fa,
ff,
fe,
f8,
fc,
fb,
f4,
f5,
f8,
fe,
2,
fe,
fc,
fe,
ff,
2,
3,
0,
fe,
ff,
fc,
fd,
fa,
f7,
f7,
f6,
f3,
f7,
fa,
fb,
fe,
1,
0,
1,
4,
3,
ff,
fd,
fc,
fd,
fc,
fd,
fa,
f5,
f1,
f3,
f6,
fa,
fc,
fd,
fe,
0,
3,
6,
7,
4,
0,
fd,
fe,
fe,
ff,
fd,
fb,
fb,
fd,
fe,
fb,
fd,
4,
7,
c,
d,
4,
4,
a,
8,
7,
6,
2,
ff,
fd,
fd,
fb,
fe,
4,
3,
fe,
2,
7,
b,
13,
10,
f,
5,
3,
1,
ff,
0,
2,
ff,
fd,
fb,
fc,
3,
8,
0,
0,
8,
9,
e,
f,
f,
14,
a,
5,
1,
1,
0,
2,
fe,
1,
fb,
fe,
2,
ff,
fd,
1,
a,
c,
8,
c,
11,
14,
b,
3,
fe,
1,
1,
5,
2,
3,
fa,
fe,
fe,
fe,
fd,
fe,
7,
4,
ff,
2,
6,
c,
9,
0,
fd,
ff,
4,
5,
4,
6,
fb,
0,
fc,
fb,
ff,
2,
3,
ff,
3,
3,
0,
8,
8,
5,
2,
0,
6,
a,
c,
6,
fb,
fc,
f8,
f9,
ff,
1,
4,
0,
3,
0,
fa,
5,
d,
7,
5,
0,
6,
7,
9,
4,
fc,
fa,
f9,
fd,
3,
ff,
fb,
f9,
fc,
f5,
f1,
fc,
9,
9,
3,
2,
4,
7,
7,
4,
ff,
fc,
fa,
ff,
ff,
fc,
f7,
f8,
f2,
ee,
f2,
fa,
2,
4,
3,
8,
2,
4,
4,
5,
1,
fd,
f8,
1,
3,
fa,
f4,
f5,
f0,
ee,
f2,
f5,
fd,
fd,
2,
7,
9,
4,
2,
6,
3,
1,
fa,
8,
5,
f9,
f2,
f5,
f0,
e8,
f3,
f5,
f9,
4,
2,
ff,
1,
fa,
fd,
3,
4,
3,
fc,
2,
fe,
f7,
f4,
f3,
f2,
ef,
f3,
f4,
f9,
fc,
f6,
f6,
fa,
f8,
fb,
fc,
4,
4,
f9,
fc,
fb,
f6,
f5,
f7,
fb,
fa,
f3,
f4,
fd,
1,
f7,
f5,
f9,
fb,
0,
ff,
7,
6,
0,
f9,
fa,
f6,
f7,
fe,
2,
2,
f4,
f3,
fe,
0,
f9,
f5,
f8,
fd,
3,
4,
a,
10,
5,
fa,
fc,
f7,
fb,
fc,
3,
0,
f8,
f6,
ff,
0,
1,
fe,
ff,
5,
4,
4,
c,
13,
a,
5,
1,
fe,
ff,
fc,
ff,
fe,
fa,
ff,
5,
4,
0,
0,
3,
9,
8,
1,
8,
e,
11,
10,
5,
0,
fc,
f8,
fb,
1,
1,
1,
3,
2,
ff,
1,
6,
6,
3,
0,
5,
9,
12,
16,
10,
6,
fc,
fb,
fe,
0,
1,
3,
4,
4,
2,
1,
1,
1,
1,
0,
ff,
0,
0,
2,
4,
0,
f9,
f5,
f7,
fd,
fd,
fd,
fc,
fc,
fd,
ff,
1,
fd,
f8,
fd,
fd,
0,
0,
4,
2,
f9,
f3,
f4,
fb,
fe,
f9,
1,
5,
4,
5,
2,
ff,
0,
fe,
1,
3,
ff,
2,
2,
fe,
f9,
f7,
f8,
ff,
fd,
fb,
2,
2,
3,
1,
1,
fd,
fc,
1,
4,
6,
ff,
3,
4,
1,
0,
fb,
f6,
fb,
fe,
fd,
1,
1,
3,
fa,
fc,
ff,
fa,
ff,
0,
8,
0,
2,
fe,
fa,
ff,
f5,
f7,
3,
9,
ff,
f8,
1,
fd,
f8,
fe,
ff,
fb,
2,
5,
b,
0,
2,
fb,
fb,
0,
fe,
1,
1,
8,
7,
6,
5,
fe,
fd,
1,
1,
fb,
fb,
1,
fe,
2,
2,
fd,
ff,
fd,
1,
fa,
0,
11,
7,
7,
0,
2,
fd,
3,
f8,
f6,
f9,
f7,
f8,
4,
fe,
ff,
ff,
fe,
fc,
f7,
2,
7,
fe,
fc,
1,
0,
fe,
ff,
f9,
f5,
fe,
fe,
2,
3,
0,
ff,
fb,
f8,
f0,
f0,
f8,
f1,
f5,
3,
3,
2,
f9,
f8,
ff,
fe,
1,
fc,
f9,
3,
fe,
fa,
f7,
f8,
f5,
f7,
f9,
f8,
fe,
1,
1,
ff,
f9,
fc,
3,
ff,
fe,
f4,
f4,
4,
2,
2,
4,
5,
9,
7,
b,
7,
3,
2,
7,
0,
fd,
4,
2,
fd,
fc,
f7,
fc,
4,
fe,
6,
10,
18,
16,
1f,
19,
b,
9,
a,
9,
fb,
fa,
0,
fc,
fe,
ff,
fe,
fb,
fe,
fd,
5,
f,
17,
1d,
17,
a,
0,
0,
fc,
f6,
f7,
0,
3,
0,
5,
4,
fd,
ff,
fe,
fb,
3,
6,
6,
8,
2,
f7,
f2,
fa,
fe,
ff,
0,
ff,
3,
5,
8,
1,
0,
fe,
fe,
fe,
1,
fd,
f5,
ed,
eb,
ea,
f4,
1,
0,
fe,
3,
3,
4,
6,
6,
1,
1,
0,
fb,
fc,
ff,
f7,
ee,
ed,
ee,
f2,
fd,
3,
6,
1,
4,
6,
8,
7,
5,
6,
9,
5,
fc,
fe,
fa,
f5,
f1,
f1,
f3,
f7,
fe,
ff,
1,
4,
3,
4,
7,
3,
0,
5,
4,
2,
fb,
fe,
fa,
f6,
f4,
f7,
f7,
fb,
0,
ff,
1,
4,
7,
8,
5,
1,
0,
1,
ff,
fe,
ff,
ff,
ff,
ff,
fe,
fe,
0,
ff,
7,
9,
a,
a,
6,
3,
6,
4,
6,
4,
7,
5,
1,
ff,
ff,
fe,
ff,
fe,
fd,
2,
6,
4,
5,
7,
7,
9,
8,
8,
8,
8,
8,
7,
3,
ff,
0,
fd,
fa,
fd,
fe,
1,
2,
2,
4,
5,
3,
5,
2,
1,
3,
4,
4,
6,
5,
0,
ff,
fc,
fa,
fa,
fc,
fe,
2,
5,
5,
3,
1,
0,
fc,
f8,
fd,
fe,
1,
4,
5,
ff,
ff,
fa,
fa,
f8,
f8,
fb,
4,
4,
2,
ff,
ff,
ff,
fd,
f8,
f9,
fd,
ff,
4,
6,
ff,
fd,
f7,
fa,
f9,
f7,
fd,
ff,
4,
ff,
fd,
fc,
1,
1,
fa,
f8,
fa,
fa,
ff,
1,
fe,
fb,
f5,
fc,
fd,
f9,
ff,
fc,
2,
fb,
f9,
fc,
4,
5,
fd,
fb,
fa,
f7,
fb,
fd,
fc,
fb,
f8,
0,
0,
1,
0,
ff,
0,
f7,
f8,
fe,
5,
8,
ff,
fc,
f9,
f7,
fc,
fe,
fb,
fc,
f8,
fe,
4,
0,
4,
1,
fc,
f4,
f8,
fd,
6,
9,
4,
0,
f9,
fa,
fb,
fe,
fb,
ff,
fd,
0,
3,
0,
4,
1,
fa,
f2,
f7,
0,
9,
7,
3,
ff,
fd,
fc,
fc,
fe,
fd,
2,
0,
0,
1,
fc,
1,
ff,
f8,
f2,
f8,
1,
6,
3,
3,
ff,
ff,
fa,
fb,
fb,
ff,
1,
1,
1,
fd,
fb,
4,
fc,
f6,
f2,
f9,
fd,
4,
3,
1,
0,
fe,
f8,
fa,
fc,
1,
3,
0,
1,
ff,
fd,
1,
fb,
f7,
f7,
fa,
fe,
2,
ff,
ff,
ff,
fe,
fa,
fb,
fa,
2,
5,
ff,
ff,
5,
6,
4,
ff,
fd,
f6,
fa,
0,
1,
0,
fe,
ff,
fe,
fe,
fe,
fc,
3,
5,
1,
0,
6,
9,
5,
0,
fc,
f6,
fd,
0,
6,
2,
2,
2,
2,
2,
ff,
fe,
ff,
2,
1,
3,
5,
4,
1,
3,
ff,
fd,
0,
2,
7,
9,
8,
8,
6,
2,
ff,
ff,
0,
1,
3,
4,
4,
ff,
2,
3,
1,
1,
2,
6,
8,
9,
7,
7,
2,
0,
1,
0,
0,
0,
1,
4,
2,
0,
0,
2,
0,
0,
1,
2,
1,
4,
3,
ff,
fd,
fd,
fe,
ff,
ff,
0,
0,
ff,
fe,
fd,
fc,
fb,
fa,
fa,
fc,
fe,
ff,
fe,
ff,
3,
7,
5,
fe,
f9,
fb,
0,
0,
fe,
fc,
f9,
f9,
f9,
f9,
fb,
fc,
fa,
f8,
f5,
f7,
fe,
4,
6,
0,
fa,
fa,
0,
ff,
fc,
fa,
f9,
f8,
f9,
fb,
fc,
fb,
f9,
f4,
f2,
f5,
1,
8,
b,
3,
fc,
fb,
1,
fe,
fb,
f8,
f8,
f9,
fb,
fc,
fc,
fc,
fb,
f8,
f5,
f6,
1,
8,
b,
5,
ff,
fd,
0,
fd,
fa,
f9,
fa,
fd,
ff,
fe,
ff,
1,
ff,
fa,
f8,
f5,
0,
4,
7,
5,
1,
0,
1,
fd,
f9,
fb,
fc,
ff,
4,
2,
ff,
2,
3,
fe,
f9,
f6,
fe,
0,
6,
6,
2,
ff,
0,
fb,
f9,
fb,
ff,
3,
4,
0,
1,
4,
6,
3,
fa,
f8,
fb,
2,
5,
4,
1,
fd,
fe,
fc,
fb,
fd,
0,
2,
2,
ff,
1,
5,
6,
ff,
fb,
fa,
ff,
5,
4,
0,
0,
fc,
fd,
fc,
fc,
fe,
2,
2,
0,
ff,
1,
3,
1,
fc,
fb,
fa,
ff,
2,
fe,
fb,
fe,
fd,
0,
ff,
fc,
fe,
4,
2,
2,
fd,
fc,
fa,
fb,
fd,
ff,
0,
2,
0,
f9,
fa,
ff,
fe,
2,
3,
ff,
0,
4,
6,
2,
fb,
f5,
f8,
fc,
0,
1,
3,
4,
fc,
f8,
fa,
ff,
fe,
1,
1,
fc,
fc,
0,
4,
1,
fc,
f8,
fc,
1,
3,
7,
5,
0,
fb,
f9,
fa,
ff,
0,
0,
ff,
fa,
fb,
1,
4,
0,
fd,
fd,
ff,
1,
2,
3,
2,
fd,
fb,
f8,
f9,
fe,
ff,
fd,
0,
fc,
fb,
1,
3,
1,
0,
ff,
fe,
fe,
0,
0,
fe,
f9,
f6,
f6,
f9,
fd,
fe,
fc,
fe,
ff,
fc,
2,
5,
3,
2,
fd,
fb,
fa,
fc,
fd,
fa,
f5,
f6,
f8,
fa,
fd,
fd,
fa,
fd,
2,
0,
5,
4,
3,
ff,
fa,
fa,
fa,
f9,
fa,
fb,
f9,
fa,
fc,
fe,
fe,
fe,
fb,
fe,
2,
4,
6,
8,
6,
0,
fc,
fa,
fb,
fb,
fb,
fc,
fd,
fe,
ff,
0,
0,
ff,
fc,
fe,
0,
2,
4,
6,
4,
ff,
fd,
fe,
0,
0,
ff,
fe,
fe,
ff,
0,
0,
0,
0,
ff,
ff,
0,
0,
0,
0,
1,
1,
0,
0,
fe,
0,
3,
8,
6,
4,
2,
1,
2,
6,
4,
ff,
fe,
fe,
ff,
0,
ff,
ff,
1,
ff,
1,
6,
9,
8,
8,
4,
2,
fe,
ff,
4,
6,
ff,
fe,
fc,
fc,
ff,
0,
fe,
3,
4,
7,
9,
6,
5,
1,
fd,
fe,
fb,
fe,
2,
5,
fe,
ff,
fe,
ff,
0,
ff,
1,
5,
3,
6,
4,
1,
fc,
fd,
fb,
fd,
fd,
fe,
0,
0,
fe,
ff,
0,
2,
0,
fe,
0,
4,
4,
6,
3,
ff,
fc,
fb,
fc,
2,
1,
0,
2,
0,
ff,
2,
2,
2,
fd,
fb,
ff,
0,
4,
8,
2,
ff,
fa,
fd,
0,
3,
1,
2,
3,
3,
ff,
4,
2,
fe,
f6,
fb,
ff,
1,
ff,
2,
fe,
fe,
fd,
0,
0,
1,
1,
1,
3,
0,
0,
4,
0,
f9,
fa,
fd,
ff,
0,
fb,
fc,
fc,
fa,
fe,
4,
0,
ff,
0,
fe,
fe,
ff,
fd,
1,
fd,
f9,
fb,
fc,
1,
0,
f7,
f8,
fb,
fb,
fe,
2,
fd,
fc,
fb,
fc,
fe,
fd,
fd,
0,
ff,
fc,
fc,
fc,
0,
ff,
f4,
f7,
fb,
fd,
ff,
0,
fd,
fc,
fa,
fb,
fc,
fd,
fe,
0,
0,
0,
0,
ff,
fe,
f5,
ef,
f7,
fe,
0,
3,
0,
fb,
fa,
f8,
fa,
fa,
fd,
fe,
1,
2,
3,
3,
ff,
f9,
ee,
ef,
f9,
2,
3,
5,
1,
fe,
fa,
fa,
fb,
fd,
fd,
fd,
3,
4,
6,
4,
fd,
f5,
ef,
f2,
fc,
8,
6,
3,
fd,
fb,
fa,
fb,
ff,
0,
0,
fd,
2,
6,
6,
4,
ff,
f5,
f6,
0,
a,
10,
c,
4,
fc,
f8,
fc,
fe,
1,
2,
ff,
fe,
fe,
3,
3,
0,
1,
0,
4,
b,
12,
10,
8,
1,
fb,
f9,
fb,
fd,
ff,
0,
1,
fd,
fd,
0,
7,
4,
7,
7,
d,
12,
13,
b,
3,
ff,
fb,
fd,
ff,
1,
1,
1,
1,
fe,
fd,
1,
7,
5,
7,
e,
10,
10,
d,
6,
3,
ff,
fd,
fc,
0,
2,
1,
1,
1,
0,
ff,
1,
6,
7,
8,
d,
e,
c,
7,
1,
fc,
fa,
fc,
fe,
ff,
0,
0,
1,
1,
ff,
2,
4,
1,
fe,
fd,
fd,
fa,
f7,
f9,
f8,
f5,
f2,
ef,
f6,
6,
a,
7,
1,
f6,
fc,
4,
4,
fe,
fa,
fa,
fd,
f6,
f6,
fa,
fc,
f2,
e8,
eb,
fb,
a,
d,
a,
4,
f7,
f9,
3,
3,
0,
fc,
fb,
fe,
fb,
fa,
f9,
fb,
f1,
e3,
e5,
f5,
b,
12,
11,
6,
fb,
fa,
3,
4,
5,
ff,
ff,
fc,
f8,
f3,
f8,
f9,
f2,
e1,
dd,
ea,
ff,
e,
13,
ff,
fa,
f9,
5,
6,
4,
1,
2,
fb,
f3,
f4,
f8,
f8,
f1,
e5,
db,
df,
f6,
d,
11,
3,
ff,
2,
6,
6,
2,
1,
2,
fe,
f9,
f7,
fb,
ff,
f7,
ef,
df,
de,
f2,
5,
9,
2,
1,
8,
8,
3,
fc,
ff,
4,
1,
2,
ff,
1,
7,
0,
ff,
e8,
e1,
ed,
ff,
2,
1,
fc,
2,
6,
ff,
fd,
fb,
3,
2,
4,
9,
b,
d,
4,
0,
ed,
e4,
f1,
1,
6,
6,
4,
5,
4,
fc,
fd,
4,
1,
f7,
fd,
a,
d,
e,
5,
fd,
f1,
e8,
f9,
fd,
0,
1,
3,
1,
7,
fc,
fe,
a,
2,
f6,
f9,
5,
c,
e,
8,
3,
f5,
ee,
f8,
f5,
f9,
fa,
1,
1,
ff,
2,
4,
f,
7,
f8,
fa,
ff,
5,
a,
7,
5,
f7,
f9,
fd,
f6,
fa,
fe,
fe,
1,
ff,
7,
6,
d,
2,
f5,
f8,
5,
7,
b,
1,
4,
4,
4,
fa,
fa,
0,
fc,
fa,
0,
7,
7,
2,
4,
6,
fa,
f7,
6,
e,
b,
2,
6,
8,
fe,
f8,
f9,
fd,
f7,
fb,
2,
5,
7,
ff,
2,
0,
f5,
f2,
f5,
1,
b,
b,
a,
a,
9,
ff,
fa,
fd,
fb,
1,
1,
4,
7,
3,
ff,
0,
fb,
f5,
f3,
fc,
1,
7,
a,
f,
a,
3,
2,
3,
0,
fe,
fd,
5,
4,
ff,
fc,
2,
ff,
f8,
f4,
f3,
fa,
4,
9,
7,
7,
7,
5,
2,
fc,
fa,
fc,
2,
4,
1,
fd,
1,
ff,
f8,
ef,
f1,
f6,
fc,
4,
6,
1,
0,
ff,
ff,
f9,
fb,
fc,
1,
5,
5,
2,
fe,
f7,
f1,
f2,
f4,
f5,
f8,
fc,
1,
3,
0,
0,
fd,
fc,
fd,
fe,
ff,
fe,
ff,
0,
0,
fe,
1,
2,
4,
7,
4,
2,
0,
fe,
fc,
ff,
fd,
fc,
fe,
fd,
2,
0,
4,
6,
4,
3,
7,
5,
1,
3,
1,
1,
fe,
fc,
fc,
fd,
fb,
fb,
fc,
fb,
ff,
2,
3,
5,
a,
d,
c,
5,
4,
2,
fd,
fc,
fc,
fb,
0,
fd,
fc,
0,
fe,
fc,
0,
3,
7,
5,
b,
d,
5,
3,
1,
fe,
fd,
fe,
1,
2,
0,
fd,
fd,
4,
1,
fc,
fc,
5,
4,
6,
c,
2,
fe,
fe,
fd,
1,
fc,
fd,
1,
0,
fd,
fc,
fd,
0,
0,
fc,
fe,
3,
7,
9,
6,
fd,
0,
0,
1,
fe,
f9,
f9,
2,
1,
fd,
fc,
fb,
fc,
fd,
fa,
fe,
2,
4,
6,
1,
ff,
2,
5,
3,
fd,
fa,
fb,
2,
1,
fb,
f9,
fd,
fb,
fd,
f9,
fb,
ff,
1,
2,
fc,
fb,
ff,
2,
fd,
fc,
fd,
fe,
1,
ff,
f7,
f7,
fa,
fd,
fd,
fa,
fb,
4,
0,
2,
fc,
f9,
fc,
0,
fd,
fe,
fa,
fe,
2,
fe,
f9,
f8,
fa,
fa,
fb,
fb,
fd,
7,
4,
3,
fd,
fb,
fd,
fe,
fc,
fb,
fc,
3,
6,
ff,
fb,
f7,
f7,
f7,
f9,
ff,
2,
5,
6,
2,
fd,
fd,
fe,
fa,
fc,
f9,
fd,
6,
b,
1,
fc,
f2,
f1,
f3,
f8,
5,
2,
3,
6,
3,
0,
fd,
fd,
ff,
fe,
fb,
fd,
5,
c,
1,
fb,
ef,
eb,
ee,
fa,
8,
2,
2,
3,
1,
1,
fe,
fc,
fc,
fc,
2,
4,
1,
5,
4,
f9,
f1,
f0,
f9,
3,
6,
0,
0,
fe,
ff,
fc,
fe,
f7,
f8,
ff,
c,
b,
3,
0,
2,
6,
5,
8,
7,
7,
5,
1,
0,
fe,
fc,
fd,
fc,
f8,
f8,
ff,
9,
c,
a,
4,
4,
a,
11,
e,
e,
c,
7,
4,
2,
ff,
fd,
fb,
fb,
fc,
fb,
fa,
2,
5,
b,
d,
8,
a,
d,
c,
7,
4,
2,
2,
2,
2,
ff,
fc,
fb,
fc,
fc,
fd,
fe,
1,
6,
a,
a,
8,
9,
4,
4,
0,
2,
2,
1,
1,
0,
fe,
fd,
fd,
fd,
fe,
0,
2,
3,
5,
8,
6,
5,
3,
0,
fe,
2,
4,
ff,
1,
1,
fe,
ff,
fd,
fc,
f9,
f3,
f4,
f6,
fc,
0,
fd,
f9,
fb,
fd,
0,
3,
4,
2,
1,
ff,
fb,
fd,
fc,
fb,
f7,
f4,
f9,
fc,
1,
1,
ff,
fd,
fd,
fa,
fc,
ff,
4,
1,
2,
fe,
fc,
fc,
fb,
fb,
fe,
0,
fe,
ff,
fd,
fe,
ff,
4,
3,
fb,
fc,
ff,
6,
2,
4,
0,
0,
fe,
fa,
f9,
0,
fc,
f8,
f9,
f7,
fb,
0,
ff,
fd,
fc,
fe,
3,
c,
6,
6,
4,
3,
fa,
f9,
fb,
0,
ff,
fe,
f9,
fa,
f9,
ff,
fa,
fb,
fa,
0,
8,
10,
d,
8,
4,
fe,
f9,
f6,
f9,
0,
2,
fe,
fe,
0,
0,
ff,
fe,
f9,
f8,
2,
a,
12,
d,
7,
3,
1,
fe,
fc,
fb,
f8,
fa,
2,
5,
5,
0,
fd,
0,
f4,
f8,
1,
7,
8,
7,
6,
b,
9,
5,
f9,
f4,
f1,
f4,
ff,
6,
3,
fc,
ff,
0,
f4,
fc,
2,
6,
9,
3,
7,
11,
c,
5,
fa,
f0,
f3,
f2,
fc,
3,
1,
fb,
fe,
fd,
f8,
fd,
fe,
1,
3,
0,
b,
16,
b,
1,
fd,
fc,
fb,
f9,
fb,
fe,
1,
2,
1,
fb,
fe,
0,
ff,
1,
2,
ff,
9,
15,
a,
6,
b,
c,
a,
0,
fc,
fe,
3,
4,
fd,
f9,
fe,
0,
2,
3,
4,
6,
7,
11,
9,
6,
d,
d,
a,
3,
1,
3,
5,
fe,
ff,
fd,
ff,
3,
7,
1,
2,
8,
5,
d,
8,
3,
4,
3,
fb,
2,
6,
a,
0,
f8,
f9,
fb,
fe,
4,
4,
fd,
0,
3,
ff,
9,
6,
1,
ff,
1,
fd,
9,
c,
8,
1,
fb,
fb,
fc,
0,
ff,
0,
0,
2,
1,
fd,
1,
0,
fc,
ff,
4,
4,
7,
5,
0,
ff,
ff,
ff,
fb,
fb,
ff,
5,
2,
3,
0,
fa,
ff,
0,
fd,
0,
5,
7,
2,
ff,
fd,
ff,
fe,
ff,
fc,
f9,
0,
4,
4,
3,
1,
fb,
fe,
fe,
fe,
4,
a,
9,
2,
fc,
f9,
f9,
fc,
fd,
f9,
fd,
2,
3,
4,
3,
2,
fc,
fc,
fa,
fc,
0,
4,
3,
fe,
f9,
f7,
fa,
fd,
fd,
fc,
ff,
3,
4,
3,
2,
2,
ff,
0,
0,
fe,
fc,
fc,
fd,
0,
4,
6,
6,
6,
4,
3,
1,
0,
fe,
fb,
fc,
fd,
fd,
0,
ff,
fe,
fe,
fc,
fd,
ff,
3,
4,
4,
3,
0,
0,
0,
0,
0,
fe,
ff,
ff,
fe,
0,
fe,
ff,
fe,
fc,
fd,
1,
6,
5,
5,
2,
ff,
fe,
fe,
fe,
fd,
ff,
4,
2,
3,
0,
ff,
ff,
fa,
fa,
fc,
0,
8,
9,
6,
2,
1,
ff,
fc,
fb,
fd,
1,
5,
4,
4,
0,
fe,
fb,
f8,
f6,
fb,
2,
9,
a,
7,
4,
4,
2,
fd,
fc,
fe,
5,
7,
6,
4,
ff,
fd,
fa,
f8,
f9,
fd,
1,
8,
d,
9,
9,
7,
6,
1,
0,
1,
4,
8,
6,
3,
ff,
ff,
fa,
fb,
fe,
0,
4,
c,
c,
7,
6,
7,
5,
4,
5,
4,
6,
7,
6,
4,
0,
fd,
fc,
fc,
1,
3,
7,
c,
b,
5,
7,
b,
b,
9,
7,
5,
8,
6,
4,
5,
fe,
fe,
fd,
ff,
ff,
3,
9,
d,
b,
7,
a,
11,
11,
b,
7,
8,
9,
4,
1,
4,
fd,
ff,
2,
5,
2,
5,
a,
c,
d,
10,
e,
f,
d,
8,
8,
8,
6,
0,
1,
5,
fe,
1,
3,
4,
6,
8,
8,
a,
c,
10,
d,
9,
6,
6,
8,
8,
3,
1,
2,
5,
ff,
2,
4,
3,
5,
7,
6,
6,
8,
8,
7,
2,
fe,
ff,
3,
3,
1,
3,
1,
ff,
fe,
1,
0,
ff,
5,
7,
7,
5,
6,
9,
5,
fe,
fa,
fa,
fe,
fe,
ff,
ff,
fc,
fc,
0,
2,
1,
ff,
4,
6,
6,
4,
6,
d,
7,
fe,
f8,
f8,
fa,
fc,
fd,
fd,
fb,
fd,
3,
1,
ff,
fe,
fd,
ff,
fe,
ff,
6,
c,
6,
fc,
f6,
f8,
fc,
fd,
fe,
fe,
fe,
1,
4,
0,
fd,
fa,
f9,
f9,
f8,
fd,
7,
9,
4,
fd,
f7,
fa,
fd,
fd,
fc,
fe,
ff,
0,
3,
0,
fe,
fa,
f9,
f9,
fa,
1,
7,
8,
5,
1,
fd,
fc,
fb,
fb,
fc,
fd,
ff,
0,
2,
2,
2,
0,
fd,
fd,
fe,
2,
8,
9,
5,
1,
fe,
fc,
fb,
fc,
fc,
fd,
fe,
0,
ff,
1,
3,
3,
3,
3,
2,
2,
2,
5,
a,
8,
4,
2,
2,
ff,
fe,
fa,
f8,
f9,
fe,
2,
4,
3,
1,
2,
2,
5,
7,
7,
5,
3,
1,
0,
3,
1,
fe,
fd,
fb,
fa,
fd,
3,
5,
3,
ff,
fe,
5,
8,
b,
9,
6,
3,
ff,
fc,
fd,
fe,
fc,
fe,
2,
fd,
fc,
1,
4,
1,
fc,
fd,
2,
6,
6,
fd,
f9,
fb,
fc,
fa,
f7,
fa,
fc,
ff,
2,
fb,
fd,
0,
0,
f9,
f6,
f9,
f9,
fb,
f9,
f8,
f7,
fb,
0,
fa,
f8,
f7,
f9,
fe,
ff,
fc,
fb,
fd,
fa,
f4,
f7,
f9,
f8,
f4,
f5,
1,
3,
5,
8,
1,
fe,
fe,
ff,
ff,
1,
fb,
f9,
ff,
fd,
f8,
f7,
f6,
f3,
f4,
fe,
c,
b,
a,
d,
8,
fe,
5,
fe,
fd,
0,
fe,
fa,
1,
f9,
f3,
f3,
f1,
ef,
f9,
4,
a,
a,
8,
e,
b,
5,
5,
fc,
fd,
2,
fd,
fd,
0,
fc,
f6,
f6,
f5,
f7,
fc,
2,
5,
7,
9,
10,
d,
4,
fe,
0,
4,
5,
fe,
fe,
fb,
fd,
fb,
fa,
f9,
fc,
fc,
fc,
1,
b,
e,
e,
b,
fd,
f8,
fc,
3,
2,
fe,
fb,
fb,
fd,
f9,
f7,
fb,
fd,
f7,
f6,
fa,
8,
e,
b,
5,
fe,
fe,
0,
2,
2,
2,
0,
fa,
fc,
f7,
f5,
f6,
f8,
f4,
f1,
f4,
3,
c,
8,
1,
0,
0,
0,
3,
7,
fe,
ff,
fb,
f9,
f0,
f1,
f1,
f2,
f0,
f0,
f7,
7,
9,
8,
4,
2,
ff,
fd,
1,
1,
0,
2,
fe,
fc,
f6,
f4,
f3,
f6,
f8,
f8,
fa,
8,
b,
8,
5,
fd,
f9,
fb,
fe,
1,
4,
4,
1,
fe,
f8,
f6,
fb,
3,
0,
fb,
fe,
3,
1,
3,
8,
3,
2,
3,
1,
ff,
0,
3,
4,
0,
fa,
fc,
fe,
2,
ff,
ff,
0,
0,
1,
5,
a,
a,
8,
5,
2,
0,
2,
2,
4,
3,
1,
0,
fd,
fb,
fb,
fd,
1,
3,
7,
a,
9,
8,
3,
0,
fe,
ff,
fe,
ff,
3,
6,
7,
2,
fd,
fa,
fa,
fd,
3,
7,
8,
7,
5,
4,
0,
fd,
fd,
fe,
fd,
fe,
ff,
ff,
ff,
fe,
fd,
ff,
2,
3,
6,
7,
2,
fe,
fd,
1,
4,
3,
0,
0,
1,
ff,
fc,
fe,
ff,
fd,
fe,
2,
3,
5,
7,
2,
fc,
fb,
fd,
1,
9,
5,
0,
2,
2,
3,
ff,
ff,
fe,
fe,
0,
5,
7,
b,
c,
3,
0,
fb,
f9,
fd,
0,
fe,
2,
ff,
1,
2,
ff,
fd,
fd,
1,
1,
5,
7,
b,
9,
2,
ff,
f8,
fa,
f9,
fb,
fc,
2,
3,
2,
1,
fa,
fd,
0,
2,
2,
6,
3,
fd,
1,
0,
fd,
fc,
f7,
fa,
fc,
fe,
2,
3,
3,
5,
fd,
fe,
2,
0,
1,
2,
fc,
f9,
ff,
1,
ff,
fa,
f9,
fa,
ff,
fe,
fe,
9,
8,
5,
2,
fd,
1,
0,
0,
fb,
f9,
fc,
2,
4,
0,
fe,
fe,
2,
4,
fc,
ff,
d,
8,
2,
ff,
fe,
ff,
1,
fb,
f9,
fa,
2,
2,
fe,
fc,
fe,
ff,
7,
7,
fb,
ff,
7,
5,
ff,
fd,
f9,
fd,
fd,
f8,
f7,
f7,
ff,
0,
f7,
f7,
fd,
fb,
1,
ff,
fa,
fc,
2,
0,
fb,
f9,
fc,
1,
fd,
f9,
fb,
f6,
f7,
f7,
ed,
ef,
f5,
fa,
fd,
f9,
fb,
2,
5,
fd,
f7,
fb,
0,
2,
0,
fe,
fb,
f4,
f0,
ec,
e8,
f2,
f8,
ff,
ff,
fb,
fa,
ff,
fe,
fc,
f7,
fb,
3,
2,
3,
3,
fc,
f1,
e6,
e0,
f2,
0,
4,
7,
7,
fd,
fa,
fd,
3,
fe,
fa,
fa,
4,
2,
4,
5,
fe,
ef,
e2,
eb,
6,
d,
9,
a,
6,
f8,
f9,
0,
2,
fe,
fc,
fc,
3,
4,
5,
6,
3,
1,
0,
c,
18,
16,
11,
9,
fe,
f7,
fa,
0,
1,
ff,
fe,
fc,
4,
fe,
fd,
1,
4,
12,
18,
14,
14,
14,
b,
fc,
f5,
f6,
fb,
fc,
0,
0,
fe,
0,
3,
2,
ff,
6,
c,
15,
12,
c,
e,
e,
1,
f8,
f8,
fb,
fe,
1,
4,
3,
1,
1,
2,
3,
6,
f,
11,
14,
15,
f,
f,
b,
fe,
fe,
fe,
fc,
fe,
0,
4,
3,
3,
3,
3,
2,
7,
9,
9,
11,
12,
c,
a,
1,
fb,
f8,
fa,
fc,
0,
1,
2,
2,
2,
1,
ff,
ff,
fe,
1,
5,
8,
9,
5,
1,
fd,
fc,
f9,
fd,
fc,
fc,
fb,
fb,
fb,
f8,
fa,
fc,
ff,
ff,
1,
5,
6,
6,
ff,
1,
0,
1,
ff,
fd,
2,
6,
3,
0,
fd,
f9,
f9,
fa,
fd,
ff,
2,
5,
b,
7,
3,
2,
6,
0,
fb,
fc,
5,
6,
4,
ff,
fc,
f9,
f9,
f9,
fd,
fd,
0,
3,
a,
8,
5,
fd,
ff,
f9,
f5,
fa,
3,
5,
1,
fb,
f7,
f5,
fa,
f5,
fd,
fb,
fc,
fc,
7,
5,
0,
ff,
0,
fe,
f9,
0,
3,
4,
fe,
f5,
f2,
f2,
f7,
f7,
fb,
fb,
f8,
f5,
3,
5,
3,
4,
6,
4,
fc,
1,
5,
fd,
f9,
f3,
ee,
ed,
f1,
f9,
fa,
f9,
f9,
f6,
4,
4,
3,
1,
ff,
f7,
f6,
fb,
2,
fb,
f1,
f1,
ee,
fa,
5,
4,
f9,
f6,
fb,
fc,
fe,
fd,
ff,
ff,
f8,
f2,
f6,
f7,
fb,
f8,
f4,
f0,
f7,
5,
b,
8,
f8,
f8,
fe,
fc,
f8,
fa,
4,
6,
fe,
fc,
f6,
f7,
f5,
f9,
1,
0,
6,
b,
b,
9,
f8,
fb,
fe,
0,
2,
6,
8,
a,
a,
6,
fc,
2,
5,
7,
6,
8,
6,
4,
0,
0,
fa,
fc,
4,
9,
5,
9,
9,
3,
6,
0,
f8,
fa,
0,
3,
1,
fe,
0,
fb,
f7,
fc,
fc,
fe,
a,
e,
d,
10,
3,
ff,
fe,
fa,
fc,
4,
6,
b,
5,
fb,
f9,
f6,
f7,
f8,
fe,
fe,
5,
4,
3,
7,
0,
ff,
2,
fd,
2,
2,
2,
8,
0,
f4,
f0,
f3,
f6,
f9,
fe,
fd,
fb,
fe,
f5,
f8,
f9,
fb,
fa,
fe,
6,
4,
4,
4,
0,
fa,
f7,
f9,
f9,
fb,
fe,
fa,
f8,
f9,
f9,
fc,
ff,
2,
2,
5,
7,
8,
8,
5,
1,
fb,
f8,
f9,
f9,
f9,
ff,
fc,
f9,
fc,
fb,
fe,
2,
1,
1,
4,
6,
9,
5,
3,
fe,
f9,
f9,
fd,
fc,
fe,
ff,
fc,
f9,
fa,
fc,
fd,
0,
1,
2,
1,
2,
2,
2,
1,
fb,
f6,
f8,
fb,
fb,
fc,
0,
fe,
fb,
fb,
fd,
fd,
fc,
fb,
fb,
fb,
ff,
ff,
2,
ff,
f9,
f9,
fb,
fd,
fe,
fd,
ff,
1,
4,
1,
2,
2,
fe,
fe,
ff,
0,
fc,
fc,
fc,
fd,
fc,
fd,
1,
ff,
0,
1,
2,
2,
6,
5,
5,
3,
fe,
0,
fe,
f9,
f3,
f6,
fc,
fd,
1,
0,
3,
0,
5,
1,
2,
2,
6,
7,
8,
3,
0,
6,
0,
f6,
f8,
fa,
ff,
fc,
1,
ff,
1,
fe,
3,
ff,
1,
1,
2,
6,
5,
ff,
0,
1,
1,
f8,
f6,
f9,
ff,
3,
fd,
ff,
6,
fe,
fb,
f9,
1,
1,
fc,
ff,
fc,
f8,
fc,
1,
3,
fe,
f6,
f9,
f9,
1,
fc,
fc,
3,
4,
fc,
fb,
0,
ff,
ff,
fb,
f6,
fe,
3,
4,
1,
ff,
fe,
2,
ff,
2,
2,
1,
fd,
fd,
fb,
1,
5,
ff,
5,
fe,
2,
6,
3,
f9,
fb,
8,
6,
8,
ff,
5,
3,
0,
f9,
fd,
ff,
4,
2,
0,
fa,
fe,
1,
7,
fe,
f5,
f9,
a,
9,
7,
8,
8,
fe,
ff,
2,
4,
ff,
6,
6,
0,
f6,
f8,
fb,
fe,
fa,
f6,
f9,
6,
4,
a,
a,
ff,
f3,
ff,
9,
b,
4,
1,
1,
fe,
f5,
f5,
f7,
f5,
f1,
ea,
f7,
2,
6,
6,
ff,
f2,
ed,
fe,
a,
a,
6,
5,
1,
fd,
f5,
ef,
ee,
f2,
f0,
eb,
fb,
9,
6,
ff,
f2,
ef,
f4,
0,
5,
1,
1,
ff,
fc,
fa,
f3,
f0,
f0,
f8,
fa,
2,
11,
19,
3,
f9,
f1,
f9,
fe,
3,
1,
fb,
f9,
ff,
fe,
0,
ff,
f7,
fc,
5,
b,
17,
17,
11,
4,
f4,
f7,
2,
0,
ff,
fc,
fb,
fc,
4,
0,
4,
8,
7,
a,
11,
15,
19,
e,
5,
f9,
f7,
ff,
6,
7,
4,
ff,
2,
6,
5,
0,
6,
a,
f,
d,
f,
f,
c,
2,
f8,
fa,
fa,
ff,
ff,
2,
5,
6,
5,
3,
3,
0,
3,
6,
a,
8,
d,
9,
fc,
f8,
f8,
f6,
f9,
fc,
fd,
fe,
fe,
1,
1,
ff,
1,
0,
2,
0,
4,
6,
7,
ff,
f8,
f6,
f8,
fa,
fd,
0,
fc,
fa,
fb,
ff,
fe,
fd,
fd,
fd,
0,
0,
2,
2,
fa,
f5,
f4,
f5,
fa,
fa,
fc,
0,
0,
1,
fe,
fd,
fb,
fa,
fc,
fd,
ff,
3,
4,
1,
fd,
f9,
f5,
f3,
f3,
f6,
fa,
6,
9,
6,
5,
4,
3,
2,
2,
0,
fd,
5,
4,
fd,
f7,
f4,
f2,
f0,
f1,
fa,
3,
8,
1,
ff,
fd,
1,
0,
2,
4,
0,
fe,
7,
3,
f8,
f5,
f2,
ef,
ef,
f4,
0,
9,
5,
fc,
fc,
fd,
1,
fe,
ff,
fd,
0,
ff,
a,
2,
fa,
f5,
f3,
ec,
ee,
f4,
4,
9,
2,
fe,
fe,
1,
2,
0,
1,
fb,
fc,
fe,
a,
3,
fc,
f4,
f0,
e9,
ed,
f9,
a,
8,
fe,
fc,
2,
4,
5,
1,
1,
fa,
ff,
1,
e,
5,
fb,
f4,
ec,
e8,
f0,
fc,
6,
6,
fe,
fa,
fe,
1,
fe,
0,
4,
f9,
ff,
0,
10,
a,
fd,
f5,
ee,
ee,
ef,
f6,
6,
9,
fe,
f8,
ff,
fd,
fb,
4,
6,
f9,
fb,
2,
f,
10,
3,
fb,
f1,
ec,
eb,
f7,
5,
9,
ff,
fd,
fe,
fc,
fe,
b,
5,
fa,
fa,
0,
c,
d,
5,
5,
fa,
eb,
e8,
f3,
fe,
1,
ff,
fc,
f9,
f9,
fe,
4,
0,
fa,
fd,
0,
c,
9,
7,
7,
4,
f4,
ee,
f8,
fe,
fd,
1,
ff,
f9,
fc,
fe,
5,
4,
fd,
fb,
ff,
a,
d,
b,
a,
7,
2,
1,
2,
4,
5,
5,
ff,
f9,
fe,
2,
3,
7,
2,
fd,
1,
2,
2,
5,
7,
8,
4,
4,
2,
fb,
f9,
fe,
fc,
ff,
ff,
fc,
7,
5,
3,
2,
4,
3,
2,
6,
6,
1,
0,
2,
ff,
f6,
f9,
fc,
fd,
1,
3,
fe,
3,
6,
4,
2,
4,
4,
6,
4,
6,
1,
ff,
ff,
3,
fd,
fc,
0,
3,
4,
2,
fe,
1,
6,
6,
3,
4,
0,
6,
3,
0,
4,
2,
0,
2,
ff,
0,
fe,
fd,
ff,
fb,
f9,
fb,
1,
3,
5,
5,
fa,
3,
6,
3,
2,
ff,
fe,
fc,
ff,
fe,
fe,
0,
0,
fb,
f8,
f9,
ff,
1,
4,
4,
fa,
ff,
4,
5,
7,
5,
0,
fd,
fc,
fc,
fb,
f9,
fa,
f8,
fb,
fc,
2,
4,
4,
4,
fa,
fc,
fc,
ff,
ff,
ff,
fd,
fd,
fb,
fb,
fa,
fa,
f9,
f8,
fc,
0,
3,
5,
3,
2,
ff,
0,
2,
1,
0,
fe,
0,
1,
0,
0,
1,
fd,
fe,
fb,
fd,
fa,
fb,
fe,
1,
4,
5,
0,
1,
fd,
fb,
fa,
fe,
1,
ff,
4,
0,
fc,
1,
fe,
fe,
fc,
fd,
ff,
0,
3,
3,
1,
ff,
fa,
f5,
f6,
fc,
0,
ff,
7,
6,
2,
ff,
fe,
fa,
fe,
0,
2,
1,
1,
2,
ff,
fe,
f8,
f4,
f9,
fd,
2,
4,
a,
5,
ff,
fd,
f9,
f7,
fe,
ff,
0,
fe,
0,
1,
fe,
fc,
f7,
f6,
fd,
2,
7,
7,
7,
1,
f7,
f7,
f6,
f7,
fe,
ff,
fc,
fc,
fd,
ff,
fd,
fb,
fc,
f7,
fc,
7,
8,
9,
6,
fd,
f3,
f5,
f7,
f8,
fa,
f9,
f9,
fa,
fc,
fe,
fe,
fd,
fe,
f9,
fb,
1,
7,
9,
a,
1,
fb,
fe,
fc,
fd,
f9,
f5,
f8,
fb,
0,
1,
1,
3,
fe,
f8,
fc,
2,
c,
10,
a,
7,
6,
c,
8,
4,
ff,
fa,
f8,
f9,
fc,
0,
ff,
0,
fa,
fe,
f8,
fb,
fd,
6,
a,
9,
9,
8,
6,
3,
1,
fd,
fc,
fb,
fb,
ff,
ff,
fe,
fd,
fa,
f3,
ee,
ed,
f4,
fa,
fb,
ff,
fc,
fc,
ff,
fe,
fd,
fc,
fe,
0,
1,
fe,
fe,
fa,
fa,
f1,
eb,
ea,
ef,
f2,
f1,
f7,
fa,
fd,
fb,
fb,
fe,
fb,
fa,
fd,
0,
fe,
fb,
f7,
fa,
fa,
f5,
f4,
fa,
fb,
f9,
fc,
ff,
fe,
fc,
fd,
fc,
fd,
fe,
4,
5,
fe,
fa,
f9,
fc,
fe,
fb,
fd,
4,
3,
ff,
fe,
fe,
fc,
fc,
fc,
fc,
fd,
5,
b,
7,
ff,
fd,
fd,
fb,
fa,
fc,
4,
9,
8,
2,
2,
ff,
ff,
fd,
fd,
0,
4,
9,
b,
8,
0,
1,
2,
ff,
fe,
ff,
7,
a,
b,
8,
3,
4,
3,
fe,
fd,
fd,
1,
3,
4,
2,
1,
2,
5,
0,
ff,
3,
a,
a,
6,
2,
1,
0,
ff,
fe,
fe,
fa,
fb,
fe,
ff,
ff,
1,
2,
4,
2,
4,
4,
8,
7,
3,
0,
1,
fe,
fb,
fa,
fa,
f8,
fa,
fb,
fb,
fc,
1,
2,
3,
1,
2,
4,
4,
3,
fd,
fc,
0,
fe,
fc,
fc,
fb,
fb,
fc,
fd,
fd,
fd,
ff,
0,
0,
2,
5,
5,
2,
2,
1,
1,
5,
a,
a,
9,
8,
6,
2,
fc,
fb,
fd,
fd,
1,
3,
5,
5,
4,
2,
4,
4,
4,
7,
c,
b,
a,
9,
6,
ff,
fc,
fa,
fc,
fe,
2,
7,
7,
4,
3,
3,
7,
8,
9,
9,
8,
8,
6,
7,
3,
ff,
fc,
fe,
ff,
1,
4,
8,
7,
3,
4,
7,
9,
6,
2,
ff,
3,
3,
3,
8,
8,
0,
fd,
ff,
2,
4,
5,
9,
5,
2,
7,
7,
3,
fd,
f9,
fa,
fe,
ff,
1,
b,
9,
2,
0,
fd,
4,
3,
4,
6,
0,
3,
a,
6,
fc,
f5,
f9,
fd,
fe,
fb,
fc,
a,
a,
8,
4,
4,
a,
7,
2,
4,
1,
4,
7,
1,
f8,
f7,
fb,
fd,
f5,
f2,
fb,
3,
b,
6,
3,
9,
b,
8,
fe,
1,
4,
5,
2,
f9,
f1,
f2,
fa,
fa,
f6,
f5,
f9,
fe,
2,
ff,
2,
5,
8,
7,
fc,
4,
7,
3,
2,
fc,
f7,
f6,
f8,
fc,
fd,
fc,
fe,
1,
3,
5,
4,
5,
4,
8,
fb,
2,
5,
1,
ff,
f9,
f9,
f8,
fd,
2,
2,
2,
7,
8,
b,
c,
9,
3,
5,
4,
fb,
4,
2,
fa,
fa,
f6,
f6,
fa,
fc,
0,
0,
ff,
9,
e,
12,
e,
a,
9,
b,
6,
1,
a,
4,
2,
f7,
f3,
fa,
f9,
fc,
0,
4,
5,
c,
d,
f,
e,
c,
f,
c,
5,
2,
9,
7,
4,
fa,
fb,
ff,
f9,
ff,
7,
7,
7,
e,
f,
b,
a,
8,
8,
8,
6,
ff,
2,
4,
fd,
fb,
ff,
2,
0,
6,
7,
7,
a,
d,
9,
6,
5,
3,
5,
5,
4,
0,
1,
1,
ff,
0,
1,
ff,
fd,
2,
5,
7,
8,
a,
7,
5,
5,
3,
1,
3,
3,
2,
2,
3,
5,
2,
ff,
fd,
fe,
3,
4,
3,
3,
5,
4,
3,
3,
3,
3,
4,
4,
1,
0,
3,
4,
0,
fc,
fb,
fe,
2,
4,
2,
2,
3,
1,
2,
2,
2,
4,
3,
2,
1,
1,
2,
1,
1,
fe,
fc,
fe,
2,
5,
4,
2,
1,
ff,
2,
2,
2,
3,
2,
1,
ff,
6,
4,
1,
fe,
fe,
fa,
f8,
f9,
f8,
fc,
2,
3,
5,
5,
1,
1,
fe,
fb,
fc,
fe,
7,
4,
0,
fc,
fc,
f8,
f7,
fb,
ff,
fd,
1,
ff,
3,
0,
1,
2,
5,
ff,
f9,
fd,
9,
5,
fd,
f8,
fa,
f6,
f7,
ff,
2,
3,
5,
3,
0,
fc,
fb,
f9,
1,
3,
fe,
ff,
d,
6,
fc,
f4,
f7,
f9,
f9,
fc,
2,
3,
3,
2,
1,
fa,
f6,
f8,
2,
8,
8,
3,
e,
6,
f8,
f5,
fe,
f9,
f8,
fc,
3,
0,
1,
fe,
fb,
fc,
f6,
fa,
ff,
5,
8,
3,
d,
5,
f6,
f9,
f7,
f0,
f3,
fd,
ff,
fe,
ff,
fb,
fc,
fd,
f7,
fc,
ff,
fe,
fe,
2,
11,
9,
f6,
fa,
fa,
f9,
f9,
f7,
fb,
2,
fe,
f9,
fb,
2,
2,
0,
5,
1,
fa,
ff,
10,
fe,
f3,
fe,
5,
fd,
f9,
f7,
fd,
9,
3,
3,
1,
4,
0,
9,
b,
5,
fc,
f8,
6,
fa,
f8,
2,
c,
0,
f9,
fb,
2,
9,
a,
9,
4,
1,
ff,
a,
f,
4,
f8,
fb,
fa,
f4,
fc,
4,
9,
7,
fc,
0,
1,
3,
5,
ff,
f9,
fc,
ff,
8,
d,
4,
fb,
f8,
f5,
f3,
fb,
3,
b,
e,
5,
4,
c,
8,
2,
fa,
fa,
fc,
5,
d,
d,
6,
f8,
f1,
f6,
f1,
f0,
fa,
7,
8,
6,
1,
1,
fe,
f5,
f3,
f7,
f8,
5,
10,
8,
8,
fb,
f4,
fa,
f9,
f8,
f9,
fb,
fe,
0,
fe,
fc,
1,
1,
f9,
fe,
fe,
3,
6,
c,
b,
2,
fc,
f9,
f8,
f4,
f4,
fa,
f9,
ff,
7,
1,
2,
6,
4,
3,
0,
0,
2,
6,
b,
5,
3,
f4,
f7,
f3,
f5,
fa,
fd,
ff,
5,
2,
4,
5,
1,
fe,
fe,
fc,
ff,
7,
2,
4,
7,
f2,
f7,
f9,
fa,
fc,
fc,
fe,
2,
6,
8,
a,
6,
2,
0,
fa,
fe,
1,
fd,
1,
7,
f7,
f8,
fc,
fa,
fb,
fe,
fd,
1,
4,
b,
9,
2,
1,
fd,
fb,
2,
1,
1,
0,
3,
fd,
fd,
fa,
f6,
f5,
f9,
fc,
ff,
3,
9,
8,
3,
0,
fb,
fe,
3,
3,
4,
1,
2,
ff,
0,
ff,
ff,
ff,
fd,
fb,
fa,
fc,
fe,
fe,
fe,
fc,
fb,
fb,
fb,
fd,
fe,
fe,
fe,
ff,
ff,
ff,
ff,
fc,
fa,
f9,
fb,
fe,
1,
0,
ff,
fd,
fd,
fa,
f9,
fb,
fc,
fb,
fc,
fe,
ff,
ff,
fd,
fa,
fa,
fb,
ff,
4,
7,
4,
1,
fe,
fd,
fa,
f9,
fa,
fb,
fb,
fa,
fc,
fe,
fe,
fd,
fc,
fd,
ff,
4,
a,
9,
3,
0,
fc,
fa,
f9,
f8,
f8,
f9,
fa,
fa,
fb,
fe,
fe,
fc,
fd,
fd,
fd,
1,
6,
6,
fd,
f9,
fb,
f9,
f7,
f8,
f7,
f6,
f8,
fa,
fc,
fe,
fd,
fc,
fd,
fa,
f7,
fa,
1,
1,
fa,
f7,
fb,
fb,
f9,
f9,
f6,
f2,
f4,
f7,
fb,
fd,
fc,
fc,
fa,
f3,
f2,
f7,
ff,
0,
f9,
f6,
fa,
fd,
fa,
f8,
f4,
f2,
f4,
f7,
fb,
fc,
f9,
fc,
fb,
f3,
f4,
fa,
ff,
fd,
f5,
f3,
f5,
f7,
f9,
f8,
f4,
f5,
f6,
fa,
fe,
fc,
f9,
0,
ff,
fc,
fe,
1,
0,
fa,
f4,
f1,
f1,
f2,
f8,
fb,
fa,
fa,
f9,
fd,
2,
fb,
fb,
ff,
0,
ff,
2,
2,
2,
fd,
f7,
f5,
f5,
f9,
fe,
ff,
ff,
fd,
fd,
0,
2,
fc,
fa,
0,
ff,
fb,
fc,
fb,
fc,
fe,
fe,
fe,
fd,
fe,
ff,
fe,
fc,
fb,
fd,
0,
3,
fd,
f9,
fe,
0,
fb,
f8,
f8,
fd,
0,
5,
6,
5,
0,
fd,
f9,
f6,
f8,
fb,
0,
2,
fe,
fa,
fb,
fc,
fa,
f9,
f9,
fd,
3,
4,
3,
0,
fd,
fd,
fa,
f9,
fb,
fd,
ff,
ff,
ff,
fb,
fa,
fc,
f9,
fa,
fd,
ff,
ff,
ff,
ff,
fc,
fb,
fb,
fb,
fd,
fd,
fd,
fe,
fe,
ff,
fc,
fb,
fc,
fd,
fe,
0,
1,
0,
ff,
fe,
fc,
fc,
fb,
fc,
fc,
fa,
fa,
fc,
fd,
0,
fe,
fc,
fe,
ff,
0,
0,
ff,
fe,
fe,
fe,
fd,
fd,
fb,
fc,
fb,
fa,
fb,
fc,
fe,
0,
ff,
fe,
ff,
0,
ff,
ff,
fd,
fd,
fe,
fe,
fe,
fc,
fc,
fb,
fa,
fb,
fc,
fe,
ff,
0,
0,
0,
0,
ff,
fe,
fd,
fc,
fc,
fc,
fd,
fd,
fc,
fc,
fb,
fc,
fc,
fe,
fe,
ff,
ff,
0,
4,
8,
9,
8,
5,
7,
c,
11,
11,
c,
8,
8,
ff,
1,
2,
1,
0,
fe,
fe,
1,
5,
9,
a,
5,
6,
b,
12,
12,
11,
b,
a,
7,
fb,
fa,
2,
2,
1,
0,
fd,
1,
7,
b,
9,
3,
2,
6,
b,
7,
6,
6,
7,
7,
1,
0,
4,
4,
4,
2,
ff,
2,
6,
b,
2,
fc,
ff,
0,
fb,
f6,
f9,
1,
1,
2,
3,
1,
5,
7,
4,
0,
1,
1,
6,
7,
fd,
f9,
fd,
f5,
f1,
ed,
f3,
f9,
3,
1,
3,
2,
3,
4,
4,
ff,
1,
0,
4,
1,
fc,
fd,
fa,
ef,
ef,
ed,
ee,
fb,
7,
3,
0,
0,
0,
1,
ff,
fc,
fc,
ff,
0,
ff,
0,
0,
f7,
f0,
f1,
f1,
f1,
fc,
8,
3,
fd,
ff,
fb,
fb,
fa,
fb,
fa,
fc,
fd,
0,
3,
1,
fa,
f4,
f4,
f9,
f9,
fa,
0,
2,
fd,
fc,
f7,
f6,
f8,
fd,
fa,
fe,
fc,
fe,
0,
2,
0,
fd,
fe,
fc,
fb,
f7,
f7,
ff,
fb,
f7,
f5,
f5,
f9,
fa,
fb,
fe,
fb,
fe,
fd,
fe,
1,
5,
3,
0,
f9,
f6,
f6,
f8,
f4,
f4,
f4,
f4,
f8,
fa,
fb,
ff,
fc,
0,
fd,
fd,
4,
5,
2,
0,
fd,
fb,
f8,
f4,
f5,
f5,
f4,
fa,
f9,
fb,
fd,
ff,
fc,
fd,
fe,
fc,
2,
fd,
2,
1,
3,
3,
fc,
f6,
f4,
f6,
f5,
fc,
fa,
0,
0,
0,
fc,
fe,
fc,
0,
3,
fe,
fe,
fe,
1,
3,
fe,
ff,
fd,
fc,
fc,
2,
3,
6,
2,
1,
fe,
fe,
ff,
2,
3,
0,
fa,
fd,
fd,
fd,
ff,
3,
4,
2,
1,
3,
5,
5,
5,
1,
ff,
fc,
fd,
1,
4,
2,
ff,
fe,
fd,
fc,
0,
7,
b,
b,
b,
4,
4,
4,
6,
2,
ff,
fc,
fb,
fe,
1,
1,
0,
1,
2,
0,
3,
6,
a,
d,
7,
2,
0,
1,
0,
1,
0,
fd,
fb,
fa,
fb,
fe,
1,
3,
7,
7,
7,
b,
8,
3,
2,
1,
fd,
0,
2,
0,
0,
ff,
fc,
fc,
fc,
fd,
0,
7,
9,
6,
7,
6,
4,
ff,
1,
ff,
fd,
0,
1,
ff,
0,
0,
ff,
fc,
fb,
fe,
0,
2,
2,
2,
7,
4,
0,
f8,
f5,
f2,
f4,
f9,
fb,
fe,
ff,
0,
0,
fc,
fb,
2,
4,
8,
6,
8,
10,
7,
0,
f8,
ef,
ee,
f3,
f7,
fb,
ff,
fe,
1,
2,
fd,
ff,
1,
4,
d,
9,
6,
f,
a,
1,
f3,
ed,
ec,
f5,
ff,
2,
2,
fd,
ff,
fd,
fb,
fe,
0,
3,
8,
2,
0,
9,
9,
4,
f0,
e7,
e9,
f6,
3,
2,
ff,
fc,
fd,
fa,
fa,
fb,
ff,
1,
6,
7,
d,
8,
8,
6,
f1,
de,
e5,
f5,
5,
6,
0,
fa,
fc,
fb,
fd,
fe,
fd,
5,
9,
b,
e,
d,
f,
12,
f4,
e2,
e9,
f3,
ff,
5,
5,
f8,
fd,
fc,
0,
f9,
ff,
5,
7,
7,
10,
19,
1b,
17,
f9,
e5,
e4,
ef,
ff,
5,
7,
f4,
fa,
fd,
fc,
fb,
4,
0,
f8,
1,
d,
19,
19,
16,
f9,
eb,
e8,
f6,
1,
2,
9,
f2,
f7,
fa,
f8,
f9,
3,
f8,
f1,
fc,
e,
15,
15,
b,
f0,
eb,
ed,
f7,
f9,
fd,
4,
f5,
fd,
f7,
f9,
ff,
1,
f7,
f8,
1,
9,
9,
9,
3,
f7,
f0,
f2,
f4,
f8,
fb,
fc,
f7,
fb,
f9,
fa,
0,
1,
f9,
3,
1,
1,
4,
9,
7,
ff,
fb,
fc,
fc,
f9,
fb,
fb,
f9,
fb,
fd,
1,
2,
2,
fd,
3,
ff,
ff,
5,
d,
5,
f6,
f6,
f9,
fb,
f7,
f9,
fd,
fb,
f7,
f8,
fc,
ff,
fc,
f8,
f5,
f9,
0,
7,
9,
3,
fc,
f6,
f8,
fb,
fc,
fa,
fc,
fc,
fa,
f8,
fe,
ff,
fc,
f9,
f7,
fe,
6,
7,
6,
fc,
f4,
f4,
f3,
f6,
f7,
f8,
0,
fe,
fe,
0,
fe,
1,
5,
ff,
ff,
4,
5,
5,
0,
fb,
f3,
f2,
f3,
f1,
f3,
f9,
fe,
ff,
fe,
3,
3,
4,
1,
fd,
0,
5,
6,
0,
fd,
fb,
f8,
f6,
f7,
f8,
fa,
fc,
0,
0,
1,
4,
3,
3,
fc,
fd,
1,
7,
5,
ff,
fc,
fb,
f8,
f6,
f8,
fc,
ff,
0,
1,
1,
5,
3,
2,
ff,
fb,
fc,
ff,
3,
1,
fc,
fc,
fd,
fc,
f9,
f9,
fc,
ff,
0,
0,
ff,
0,
0,
fe,
fd,
fb,
f9,
f7,
fa,
fd,
fc,
fd,
fb,
f9,
f6,
fb,
fd,
ff,
0,
0,
fc,
0,
ff,
fe,
fb,
f7,
f3,
f1,
fa,
fe,
ff,
fa,
f7,
fb,
1,
3,
2,
1,
fe,
ff,
fe,
0,
fe,
fc,
f7,
f3,
ed,
ef,
fd,
0,
ff,
f8,
fa,
6,
7,
8,
3,
fc,
fb,
3,
4,
ff,
fe,
fa,
f2,
ed,
ed,
f5,
fc,
2,
f9,
f7,
fa,
8,
b,
4,
f8,
fa,
0,
3,
fa,
ff,
fe,
f7,
ec,
e9,
f5,
fe,
9,
1,
fb,
f4,
fa,
b,
9,
fd,
f5,
f8,
fd,
1,
f8,
ff,
fe,
f3,
e6,
f2,
6,
e,
5,
0,
0,
1,
0,
b,
ff,
f4,
f0,
f6,
fc,
fd,
f4,
0,
fc,
ec,
ee,
4,
9,
13,
f9,
eb,
f7,
ff,
1,
fd,
0,
ef,
f8,
fe,
ff,
f9,
ef,
1,
f9,
ee,
7,
7,
c,
8,
fb,
f4,
fa,
7,
6,
fb,
f9,
fa,
0,
3,
fc,
f6,
f2,
0,
f3,
f4,
a,
2,
3,
9,
2,
1,
c,
e,
4,
f4,
f1,
3,
6,
fe,
fc,
f4,
f5,
1,
ef,
f1,
12,
7,
9,
fa,
fe,
f,
13,
e,
2,
f8,
fe,
3,
fc,
fb,
f7,
f2,
fa,
1,
ee,
f7,
c,
c,
3,
f9,
4,
11,
b,
a,
5,
6,
fd,
fb,
fc,
f9,
f1,
ec,
f6,
2,
1,
4,
1,
0,
f2,
ee,
7,
13,
5,
fe,
fd,
fb,
f7,
fc,
fe,
f9,
f3,
f4,
f9,
5,
d,
12,
11,
5,
f5,
fb,
8,
6,
fd,
f8,
fc,
f0,
ef,
f2,
f2,
f3,
f5,
f7,
f9,
2,
a,
7,
f,
2,
fb,
fd,
fe,
fb,
f9,
f5,
ed,
e8,
ed,
f2,
f6,
f7,
f9,
fb,
fc,
1,
0,
2,
6,
fb,
0,
ff,
fe,
fa,
f6,
f3,
ef,
ed,
f3,
f9,
fa,
f9,
fa,
fc,
fd,
1,
fe,
fe,
1,
3,
1,
0,
ff,
fd,
fc,
f5,
f3,
f5,
f9,
fb,
fd,
fb,
fc,
fe,
ff,
0,
fc,
f6,
f8,
fe,
2,
0,
1,
fe,
fd,
f7,
f8,
f8,
fa,
fb,
fd,
fd,
fe,
ff,
0,
ff,
fa,
f7,
f9,
fe,
ff,
1,
0,
0,
fd,
f9,
f9,
fb,
fb,
fb,
fd,
fe,
ff,
ff,
ff,
ff,
1,
ff,
ff,
0,
ff,
0,
0,
fb,
f9,
f8,
fc,
ff,
fe,
fe,
1,
a,
a,
a,
5,
2,
5,
4,
3,
1,
ff,
2,
fc,
fa,
f9,
f7,
f7,
fa,
fb,
fe,
3,
9,
11,
10,
7,
0,
8,
4,
3,
0,
fc,
0,
f9,
f4,
f3,
f5,
fb,
fd,
fb,
fe,
fc,
1,
13,
18,
b,
ff,
c,
5,
fb,
f7,
f8,
fb,
f7,
f5,
f6,
f4,
fb,
fc,
fb,
f7,
fa,
4,
13,
1b,
c,
0,
d,
9,
fb,
fb,
ff,
fe,
0,
ff,
ff,
fb,
f8,
f9,
2,
3,
fb,
2,
14,
1d,
8,
f9,
a,
3,
f8,
0,
fd,
ff,
ff,
4,
5,
ff,
fe,
fb,
2,
fd,
f1,
fe,
16,
1f,
8,
fb,
b,
1,
fb,
1,
0,
fd,
fe,
3,
6,
3,
fa,
fa,
f6,
f5,
f1,
fe,
17,
1d,
9,
fc,
9,
4,
fe,
1,
5,
fd,
fe,
0,
4,
7,
fa,
f9,
f3,
ed,
f2,
2,
13,
1b,
9,
f6,
1,
7,
fe,
8,
b,
ff,
f6,
fe,
1,
3,
1,
ff,
fc,
f4,
f3,
3,
13,
14,
7,
f8,
1,
3,
fb,
7,
3,
fd,
fb,
f8,
f9,
f9,
4,
0,
fb,
f5,
fe,
9,
18,
16,
14,
ff,
6,
2,
fb,
1,
fe,
ff,
1,
fc,
fb,
fa,
ff,
0,
fe,
f9,
ff,
a,
12,
f,
9,
fc,
7,
0,
f2,
f4,
f8,
f3,
fb,
f7,
f3,
f5,
f4,
f7,
fb,
f9,
0,
a,
8,
7,
5,
2,
8,
3,
f9,
f9,
f5,
ee,
ee,
f8,
fc,
ff,
4,
2,
5,
2,
5,
6,
a,
b,
7,
6,
5,
6,
fe,
fd,
f9,
f3,
fd,
4,
0,
3,
5,
7,
b,
5,
4,
5,
7,
6,
6,
3,
3,
5,
fd,
fb,
fe,
ff,
fc,
f9,
fc,
ff,
5,
9,
4,
0,
1,
7,
c,
8,
5,
4,
2,
6,
2,
fb,
fa,
f6,
f5,
f5,
f7,
2,
5,
5,
0,
fd,
3,
b,
e,
8,
4,
5,
ff,
0,
1,
fc,
f8,
f6,
f2,
f4,
f9,
3,
2,
fe,
0,
fe,
5,
b,
a,
5,
1,
3,
fe,
ff,
fc,
f9,
f7,
f8,
f9,
fb,
fe,
5,
2,
2,
6,
6,
9,
9,
6,
3,
0,
2,
ff,
1,
fe,
ff,
fd,
fb,
f9,
fd,
ff,
fd,
fc,
ff,
ff,
fd,
fd,
fe,
fe,
fc,
fa,
ff,
fe,
1,
1,
1,
fe,
f9,
f7,
fc,
fd,
fb,
fb,
0,
fe,
fd,
fc,
ff,
1,
5,
fc,
1,
2,
2,
3,
2,
0,
fa,
f7,
f9,
fa,
f9,
fc,
1,
0,
0,
ff,
ff,
3,
1,
fe,
3,
5,
1,
3,
4,
0,
fb,
f9,
f9,
f7,
f4,
f9,
0,
1,
fd,
f7,
f5,
2,
2,
fd,
ff,
0,
2,
3,
ff,
0,
1,
fe,
fb,
fe,
fd,
fb,
3,
4,
fc,
f3,
f4,
2,
7,
ff,
fe,
0,
3,
5,
2,
6,
3,
fd,
fe,
ff,
fc,
ff,
2,
1,
f6,
f6,
fa,
8,
a,
4,
fe,
7,
4,
7,
8,
8,
2,
fa,
f9,
fe,
f5,
f6,
f9,
f4,
ee,
fe,
e,
13,
9,
0,
0,
6,
1,
6,
6,
5,
1,
fc,
fa,
f5,
e9,
eb,
f1,
f3,
fb,
c,
14,
14,
fd,
f7,
1,
6,
f9,
fc,
ff,
fb,
fa,
f8,
fb,
f6,
ea,
eb,
f4,
1,
9,
c,
d,
5,
f8,
f9,
5,
8,
f1,
fb,
fe,
fb,
f4,
f9,
fd,
fa,
ef,
f1,
fb,
e,
10,
e,
6,
0,
fe,
fd,
2,
6,
f5,
fa,
0,
fe,
fc,
ff,
2,
fb,
f5,
fc,
6,
16,
1a,
b,
0,
f7,
fb,
1,
5,
8,
fd,
fe,
1,
fc,
ff,
2,
fe,
f3,
f3,
fc,
6,
15,
18,
9,
2,
f8,
fa,
6,
4,
3,
fc,
ff,
2,
0,
0,
ff,
ff,
f6,
f7,
5,
d,
13,
d,
5,
0,
fd,
fe,
2,
0,
1,
f7,
fc,
ff,
3,
3,
2,
1,
1,
7,
a,
11,
14,
9,
fe,
f9,
fd,
fe,
1,
fe,
1,
f6,
f7,
fd,
ff,
0,
2,
0,
3,
2,
6,
a,
9,
1,
fa,
f6,
f2,
f8,
fa,
ff,
2,
f7,
f7,
fb,
3,
2,
1,
fe,
0,
2,
5,
6,
4,
5,
fd,
f8,
f5,
f7,
fc,
ff,
2,
fb,
fb,
fc,
3,
4,
1,
fd,
ff,
fe,
1,
1,
1,
1,
fc,
fb,
f9,
f8,
0,
1,
3,
fd,
fd,
fe,
0,
1,
0,
1,
0,
1,
0,
fe,
fd,
0,
f9,
fe,
4,
4,
4,
3,
1,
ff,
ff,
fe,
fa,
f6,
f9,
fd,
1,
5,
3,
fe,
1,
fe,
f9,
f8,
f9,
f9,
fc,
fe,
fd,
fd,
ff,
fd,
fa,
f4,
fa,
ff,
1,
5,
0,
fc,
fd,
fb,
fc,
f7,
f6,
f7,
fb,
ff,
ff,
fe,
fd,
fd,
fc,
fb,
5,
3,
6,
d,
6,
fe,
fd,
fe,
3,
fc,
f7,
f6,
fa,
ff,
2,
1,
fc,
fe,
fd,
2,
4,
2,
8,
9,
c,
b,
8,
7,
7,
fd,
f6,
f1,
f6,
fe,
4,
2,
fd,
ff,
0,
6,
0,
2,
2,
fe,
fe,
a,
8,
9,
d,
6,
fb,
f3,
f3,
fb,
3,
2,
fc,
2,
7,
8,
3,
ff,
f3,
f4,
f3,
f9,
0,
2,
d,
6,
0,
f3,
ef,
f5,
0,
4,
fa,
3,
b,
f,
2,
f4,
f3,
fd,
fa,
fb,
fc,
1,
3,
ff,
f8,
f3,
f4,
fb,
4,
5,
fa,
5,
c,
f,
6,
fc,
fa,
6,
5,
fd,
fa,
fa,
fb,
f8,
f4,
f4,
fa,
fa,
0,
fd,
fa,
0,
3,
9,
a,
6,
7,
d,
6,
fe,
f5,
f2,
f3,
f6,
f5,
f7,
f8,
fa,
2,
ff,
fc,
ff,
fc,
0,
4,
3,
8,
10,
6,
fc,
f5,
f4,
f6,
fc,
fa,
f8,
f9,
fc,
ff,
fc,
fd,
f8,
fb,
ff,
f9,
fa,
7,
e,
2,
1,
fc,
1,
3,
fe,
f6,
f5,
fb,
fc,
fe,
fe,
ff,
f7,
f5,
fd,
fb,
ff,
5,
12,
b,
5,
3,
7,
1,
fa,
f9,
fc,
fe,
fb,
fb,
fe,
0,
f9,
f4,
f4,
f9,
fd,
3,
8,
7,
ff,
ff,
2,
2,
fb,
f9,
fb,
f9,
f8,
f8,
fc,
ff,
fb,
f7,
f8,
f6,
f9,
fe,
3,
8,
2,
fe,
ff,
fd,
f9,
fb,
ff,
fe,
f9,
f8,
fe,
ff,
fc,
fa,
fb,
f8,
fd,
1,
9,
8,
1,
ff,
f9,
fa,
f7,
f8,
fc,
fe,
ff,
0,
2,
0,
fe,
fb,
f9,
f8,
f7,
fa,
2,
2,
fe,
f7,
f4,
f3,
f4,
f7,
fa,
fc,
ff,
fe,
3,
0,
fe,
fa,
f8,
f6,
f4,
f7,
ff,
fe,
fb,
f7,
f5,
f4,
f1,
f3,
f8,
fc,
ff,
0,
3,
0,
fe,
fb,
fa,
f9,
f8,
fd,
ff,
ff,
fa,
f6,
f6,
f5,
f3,
f3,
f8,
fc,
0,
1,
3,
ff,
fb,
f6,
f5,
fa,
5,
9,
e,
e,
9,
3,
3,
ff,
fc,
fc,
fc,
fe,
2,
4,
2,
fe,
fc,
f9,
fa,
fc,
5,
8,
d,
c,
7,
4,
2,
0,
fb,
f7,
f6,
fc,
0,
4,
5,
fe,
fc,
fb,
ff,
2,
7,
c,
10,
6,
0,
f9,
fb,
ff,
ff,
fa,
f8,
fc,
fe,
2,
6,
1,
fd,
0,
fe,
7,
e,
e,
d,
4,
0,
fc,
ff,
6,
fc,
f9,
fa,
fb,
fa,
2,
1,
fc,
1,
6,
7,
14,
15,
c,
5,
fd,
f9,
ff,
5,
6,
fa,
fa,
4,
6,
0,
fd,
fa,
f8,
a,
17,
19,
11,
e,
1,
fe,
fc,
fb,
1,
a,
6,
0,
0,
2,
6,
7,
ff,
fc,
f5,
c,
16,
12,
2,
fe,
f4,
f8,
fa,
fb,
fc,
1,
3,
6,
5,
7,
b,
d,
0,
fc,
fb,
c,
e,
9,
fe,
fb,
f7,
f4,
fc,
fc,
fa,
f8,
1,
3,
4,
6,
7,
5,
0,
fc,
0,
c,
7,
2,
fb,
fb,
f7,
fb,
ff,
ff,
f8,
f9,
fb,
2,
3,
9,
4,
fd,
fe,
fd,
ff,
6,
4,
fc,
f9,
fa,
f4,
fa,
3,
fe,
fb,
f6,
f5,
fc,
fd,
fc,
f7,
fc,
f8,
f4,
fc,
8,
4,
fb,
2,
f9,
f2,
fc,
4,
3,
fd,
fd,
ff,
fb,
f8,
f3,
f2,
f8,
f6,
f8,
1,
5,
4,
ff,
fb,
1,
f9,
fe,
7,
5,
fd,
1,
fe,
fa,
f4,
f3,
fa,
fa,
fd,
ff,
7,
3,
ff,
0,
fe,
fe,
3,
8,
5,
fb,
fd,
4,
4,
fc,
fc,
fc,
fc,
fe,
ff,
2,
5,
3,
fc,
fd,
fb,
fc,
0,
6,
1,
2,
0,
fd,
fc,
0,
7,
5,
5,
0,
fc,
fd,
6,
3,
fe,
f9,
f8,
f9,
f5,
f6,
f5,
fc,
ff,
fc,
fd,
1,
8,
8,
3,
fd,
1,
3,
8,
2,
1,
fb,
fb,
f8,
f3,
f6,
f7,
fa,
fd,
fd,
ff,
fd,
fd,
fc,
ff,
2,
5,
3,
3,
1,
1,
fe,
fd,
f8,
f6,
f9,
fb,
fa,
fd,
fd,
f8,
fb,
fd,
0,
8,
a,
8,
6,
5,
1,
ff,
fe,
fe,
fe,
fe,
1,
2,
4,
2,
1,
0,
3,
3,
6,
9,
7,
3,
4,
4,
ff,
1,
0,
f8,
f7,
fd,
0,
2,
2,
fb,
f3,
f5,
fa,
fe,
fd,
0,
2,
3,
4,
4,
fe,
2,
1,
fc,
fd,
1,
2,
1,
6,
f9,
f4,
f5,
fa,
2,
0,
ff,
1,
2,
4,
2,
fe,
4,
0,
0,
3,
1,
ff,
1,
4,
fb,
f7,
f2,
fe,
8,
6,
fc,
fa,
fd,
0,
ff,
ff,
4,
0,
1,
3,
fa,
f9,
2,
9,
3,
f1,
eb,
f3,
3,
0,
fc,
fb,
fb,
ff,
fb,
f6,
7,
4,
2,
fd,
f8,
3,
c,
d,
fa,
f6,
f0,
f1,
fa,
fb,
fb,
fa,
f6,
fa,
f6,
f0,
8,
c,
ff,
f5,
f5,
ff,
9,
6,
fb,
1,
2,
fc,
3,
5,
4,
f5,
ee,
f1,
f8,
fd,
9,
e,
f9,
fa,
fd,
fb,
fb,
f5,
f3,
2,
8,
ff,
8,
14,
9,
fb,
f8,
fb,
1,
b,
8,
9,
0,
fc,
fd,
f8,
f2,
fc,
3,
13,
17,
13,
12,
10,
7,
2,
3,
2,
7,
11,
d,
4,
fc,
f8,
fb,
fa,
7,
12,
17,
1e,
10,
1e,
e,
1,
fb,
fa,
fd,
0,
3,
3,
8,
a,
fe,
5,
fb,
7,
d,
14,
17,
19,
7,
e,
fe,
f5,
f4,
f1,
fd,
fa,
fb,
fb,
8,
5,
4,
0,
8,
11,
13,
10,
10,
12,
7,
6,
fe,
f0,
ee,
f4,
fa,
fe,
fd,
ff,
2,
1,
4,
ff,
a,
10,
a,
6,
15,
11,
0,
f5,
f4,
f5,
fa,
fd,
fc,
ff,
2,
9,
fd,
2,
fc,
ff,
5,
fd,
fe,
8,
10,
d,
fd,
f5,
f2,
ed,
f7,
fa,
f7,
fe,
5,
a,
fe,
4,
f4,
f9,
4,
2,
3,
a,
e,
7,
f9,
f6,
f1,
f2,
f3,
fa,
fb,
fe,
fd,
5,
0,
3,
f7,
fa,
ff,
6,
3,
9,
4,
fe,
f4,
f2,
f0,
f4,
f6,
fb,
0,
ff,
1,
5,
fd,
ff,
f9,
fa,
fe,
fe,
fd,
ff,
1,
fb,
f8,
f3,
f2,
f3,
f8,
fe,
ff,
ff,
1,
0,
fb,
f9,
f3,
f5,
f9,
fd,
1,
3,
2,
ff,
f9,
f7,
f5,
f3,
fa,
3,
2,
1,
ff,
ff,
fa,
f8,
f6,
f5,
f5,
fd,
1,
5,
5,
0,
f9,
f5,
f5,
f6,
fb,
1,
0,
fd,
fe,
0,
ff,
0,
ff,
fe,
fd,
fd,
ff,
fe,
fb,
fa,
fe,
fe,
fd,
fe,
fc,
f7,
f6,
f9,
ff,
9,
e,
ff,
ff,
fd,
fd,
fe,
ff,
fb,
f9,
fb,
ff,
0,
0,
fc,
f8,
f6,
f6,
f8,
1,
8,
c,
ff,
fe,
fe,
fe,
0,
ff,
fc,
fd,
ff,
1,
2,
fe,
fb,
f6,
f6,
f9,
fe,
2,
3,
0,
ff,
fe,
0,
0,
0,
0,
ff,
1,
ff,
1,
1,
fd,
fa,
fa,
fa,
0,
0,
ff,
fe,
f9,
fd,
fc,
0,
0,
ff,
ff,
fe,
0,
fc,
ff,
ff,
fb,
fb,
fe,
ff,
2,
3,
0,
fc,
ff,
fb,
fa,
ff,
0,
2,
0,
f9,
fc,
f9,
fa,
ff,
3,
5,
c,
10,
c,
8,
ff,
fe,
a,
fa,
f9,
ff,
4,
2,
f9,
f3,
f7,
fc,
ff,
9,
d,
d,
14,
11,
5,
ff,
f9,
ff,
4,
f8,
f7,
1,
4,
fb,
f4,
f3,
fe,
6,
c,
c,
8,
e,
9,
fa,
ed,
ea,
ee,
f6,
fa,
f7,
f8,
0,
1,
fb,
f9,
fc,
9,
f,
d,
3,
1,
fe,
f3,
eb,
e5,
ea,
f0,
f6,
f7,
f8,
f7,
fe,
fd,
fd,
fd,
8,
a,
9,
0,
fc,
fb,
f7,
f4,
f0,
ed,
ef,
f4,
f5,
f6,
fb,
f7,
fe,
0,
fc,
4,
a,
6,
0,
fd,
f9,
fd,
1,
f6,
f4,
f4,
f5,
f6,
f6,
f4,
fc,
f9,
fe,
ff,
2,
8,
7,
5,
2,
fd,
fa,
2,
ff,
f4,
f7,
f7,
f7,
f7,
f7,
f5,
fd,
f7,
f8,
fb,
4,
a,
6,
9,
1,
fc,
fe,
fe,
fb,
f8,
fa,
f8,
f7,
f8,
f7,
f9,
0,
f8,
fb,
1,
4,
6,
9,
5,
1,
4,
4,
fc,
fd,
fb,
fc,
f9,
f9,
fa,
fb,
fc,
0,
f9,
fc,
ff,
0,
1,
6,
4,
4,
3,
fe,
fe,
fd,
fe,
fe,
fd,
fe,
fe,
fe,
fe,
2,
fe,
fe,
fc,
fe,
0,
0,
4,
4,
ff,
fe,
1,
fd,
1,
ff,
ff,
0,
1,
1,
0,
2,
0,
fe,
ff,
fe,
fb,
fb,
0,
ff,
fc,
fe,
0,
fc,
0,
fe,
fe,
0,
1,
1,
1,
2,
2,
1,
3,
fd,
f8,
fb,
ff,
fe,
fd,
fe,
fe,
fb,
ff,
fd,
fc,
fe,
ff,
0,
0,
ff,
0,
fe,
fe,
2,
6,
4,
5,
7,
4,
fe,
fc,
fb,
f8,
f3,
f0,
f5,
ff,
6,
5,
ff,
fe,
fc,
fe,
0,
4,
0,
5,
b,
8,
0,
fb,
f8,
f2,
ed,
ec,
f7,
3,
3,
3,
fd,
ff,
fe,
ff,
fe,
1,
4,
7,
a,
9,
4,
fc,
f4,
ee,
e8,
ed,
f9,
3,
4,
3,
3,
0,
fd,
0,
0,
ff,
0,
2,
3,
7,
4,
f4,
ef,
ea,
ee,
fa,
6,
7,
7,
8,
7,
0,
fb,
fe,
0,
fd,
f7,
fe,
fe,
fd,
fb,
ef,
ec,
f5,
1,
d,
17,
11,
6,
2,
7,
fe,
0,
fd,
0,
1,
f9,
fa,
3,
fe,
0,
fa,
2,
8,
10,
16,
17,
16,
8,
5,
d,
fe,
3,
1,
2,
7,
1,
fe,
8,
6,
ff,
1,
f,
17,
18,
13,
a,
9,
5,
9,
19,
fc,
fe,
5,
4,
7,
0,
fe,
6,
2,
ff,
7,
15,
c,
3,
fa,
ee,
ed,
fb,
2,
12,
f9,
fb,
3,
fe,
fd,
f9,
fd,
2,
fd,
f8,
2,
7,
1,
f8,
ed,
eb,
eb,
f2,
0,
6,
f7,
f7,
fe,
ff,
ff,
0,
0,
1,
fc,
fe,
fe,
2,
1,
fa,
f4,
f5,
f6,
f6,
f8,
fa,
fc,
fa,
f9,
f8,
f8,
ff,
1,
ff,
1,
5,
3,
2,
0,
fb,
fb,
fc,
f6,
f1,
f2,
ff,
fb,
ff,
fc,
f7,
fe,
fe,
fe,
fb,
2,
4,
1,
fe,
5,
4,
2,
fc,
f9,
f8,
f8,
fd,
f8,
fd,
f9,
ff,
fb,
fb,
fa,
fd,
ff,
1,
ff,
0,
0,
1,
ff,
fe,
fe,
fc,
fa,
fa,
fb,
1,
ff,
0,
fc,
fb,
fa,
fb,
fe,
4,
6,
1,
fc,
fa,
fa,
fb,
fb,
fa,
f7,
fc,
ff,
1,
0,
1,
ff,
f9,
fb,
fe,
3,
7,
4,
fd,
fa,
fb,
fb,
f8,
f7,
f7,
f9,
fe,
1,
6,
5,
6,
1,
0,
0,
ff,
4,
6,
2,
fc,
fd,
fc,
fb,
f8,
f8,
fb,
fe,
fd,
1,
4,
2,
5,
1,
0,
0,
0,
5,
6,
3,
ff,
fe,
fd,
fe,
fe,
fe,
ff,
fe,
fe,
0,
2,
2,
2,
2,
1,
0,
1,
5,
4,
3,
0,
0,
2,
1,
1,
0,
0,
ff,
ff,
ff,
ff,
1,
6,
4,
ff,
fb,
f8,
fc,
0,
4,
5,
1,
fd,
1,
0,
2,
1,
0,
1,
3,
ff,
2,
5,
1,
fd,
fc,
fe,
0,
ff,
fd,
0,
fe,
fc,
fe,
fe,
ff,
4,
7,
4,
1,
fe,
2,
4,
2,
fd,
fe,
2,
4,
3,
2,
0,
1,
fd,
1,
ff,
4,
2,
6,
5,
0,
fb,
1,
6,
2,
0,
3,
fd,
fc,
fe,
ff,
0,
fd,
fb,
fb,
3,
8,
ff,
fe,
ff,
1,
fb,
ff,
1,
fc,
2,
5,
fe,
1,
4,
1,
fa,
f5,
f9,
fb,
0,
fe,
fb,
fa,
fc,
4,
fd,
fd,
f9,
fd,
4,
6,
5,
4,
4,
d,
fd,
f2,
fd,
3,
1,
fd,
fa,
fa,
4,
6,
fb,
fa,
ff,
5,
7,
3,
4,
5,
e,
a,
1,
f8,
ff,
4,
3,
fb,
0,
0,
6,
3,
fd,
f3,
ff,
8,
6,
fe,
2,
ff,
5,
fe,
fa,
fb,
3,
6,
4,
fc,
fb,
ff,
0,
0,
fd,
f5,
f9,
1,
fe,
fa,
f0,
f0,
f5,
f5,
f8,
fc,
1,
1,
0,
ff,
f9,
fb,
fd,
0,
fc,
fa,
f1,
f5,
f8,
ea,
e4,
ec,
f3,
f2,
f6,
fa,
0,
fe,
1,
2,
fd,
fe,
ff,
fe,
2,
fe,
eb,
ec,
ec,
e4,
e5,
ef,
f1,
ef,
fc,
1,
0,
ff,
ff,
ff,
0,
0,
ff,
fe,
6,
3,
f1,
ef,
ee,
ed,
f8,
1,
0,
fe,
6,
2,
fc,
f9,
fc,
fe,
fe,
1,
ff,
0,
9,
11,
f8,
fb,
0,
b,
14,
11,
f,
c,
2,
f6,
fc,
5,
5,
ff,
fa,
fd,
3,
4,
a,
13,
6,
4,
c,
17,
1c,
16,
e,
3,
0,
fd,
2,
7,
7,
ff,
fe,
6,
a,
6,
8,
d,
8,
7,
c,
13,
d,
4,
fe,
f9,
f8,
fa,
5,
5,
7,
1,
1,
8,
7,
4,
2,
b,
f,
11,
10,
b,
3,
fc,
f9,
f9,
fa,
fc,
7,
8,
7,
2,
6,
8,
7,
3,
0,
9,
16,
13,
a,
ff,
f9,
f5,
f8,
f9,
fb,
1,
5,
5,
3,
2,
1,
3,
5,
2,
0,
9,
10,
8,
fe,
f8,
f5,
f5,
f9,
fa,
fc,
fe,
1,
2,
1,
2,
3,
3,
3,
1,
ff,
1,
1,
1,
3,
2,
1,
3,
2,
0,
fe,
1,
3,
4,
5,
7,
5,
3,
1,
fc,
f8,
1,
2,
3,
2,
1,
3,
4,
2,
fe,
fe,
3,
5,
6,
6,
6,
5,
4,
ff,
fb,
f8,
3,
3,
2,
2,
3,
6,
7,
4,
1,
3,
5,
7,
7,
9,
6,
6,
0,
fc,
fc,
ff,
5,
4,
3,
2,
6,
a,
a,
8,
8,
6,
8,
a,
c,
a,
6,
1,
ff,
ff,
1,
1,
7,
6,
5,
4,
b,
11,
11,
c,
b,
6,
8,
9,
e,
9,
5,
ff,
ff,
0,
5,
0,
9,
a,
3,
6,
e,
15,
15,
c,
6,
8,
8,
5,
8,
5,
fe,
fc,
ff,
1,
7,
1,
9,
8,
3,
6,
10,
14,
14,
7,
0,
6,
4,
fe,
1,
0,
fc,
fd,
0,
2,
1,
0,
6,
5,
4,
9,
10,
11,
9,
fd,
fa,
0,
ff,
fc,
fc,
fc,
fc,
0,
fe,
ff,
fe,
0,
3,
2,
2,
6,
a,
9,
ff,
f9,
f6,
f9,
fd,
fc,
fc,
fd,
fd,
fe,
fe,
1,
0,
0,
4,
2,
1,
4,
6,
4,
fa,
f8,
f4,
f6,
fd,
2,
4,
2,
fe,
3,
8,
7,
5,
5,
6,
5,
0,
fe,
4,
fe,
f9,
fa,
f8,
fc,
3,
7,
7,
4,
5,
9,
8,
8,
8,
7,
3,
6,
0,
fa,
fd,
f9,
fc,
fa,
f8,
fb,
1,
4,
8,
6,
5,
6,
3,
4,
5,
6,
2,
7,
5,
1,
fd,
fb,
fc,
f7,
f9,
fe,
2,
6,
7,
6,
4,
4,
3,
4,
6,
6,
ff,
5,
5,
1,
fd,
f9,
f8,
fb,
0,
1,
3,
6,
7,
8,
6,
5,
7,
9,
8,
7,
fd,
4,
2,
1,
ff,
fc,
f9,
fd,
ff,
1,
3,
2,
5,
7,
7,
9,
b,
c,
a,
6,
fd,
1,
1,
1,
ff,
fe,
fe,
fd,
ff,
1,
2,
2,
6,
7,
8,
c,
e,
a,
7,
5,
fd,
0,
fd,
fe,
fd,
0,
ff,
ff,
ff,
1,
1,
0,
6,
9,
d,
e,
b,
7,
4,
2,
fd,
fc,
fb,
fa,
fe,
0,
0,
0,
ff,
0,
1,
2,
8,
a,
d,
b,
7,
4,
3,
2,
ff,
0,
0,
1,
1,
3,
5,
4,
0,
fd,
fc,
fc,
fb,
fb,
fb,
fd,
fe,
1,
1,
fe,
fe,
1,
1,
3,
6,
a,
3,
1,
0,
1,
fe,
f6,
fc,
fe,
fc,
fc,
0,
4,
2,
ff,
0,
2,
ff,
7,
d,
9,
6,
7,
3,
0,
fd,
fa,
fd,
ff,
fb,
fc,
ff,
2,
0,
ff,
2,
3,
0,
8,
4,
0,
3,
2,
3,
5,
6,
fd,
3,
4,
fd,
fc,
fd,
0,
2,
fe,
1,
3,
1,
7,
7,
4,
7,
5,
3,
6,
5,
4,
3,
4,
ff,
0,
2,
5,
fe,
f9,
ff,
3,
5,
5,
5,
6,
5,
1,
2,
9,
b,
4,
1,
4,
3,
fc,
fb,
0,
3,
0,
3,
1,
4,
3,
a,
a,
1,
fe,
1,
6,
4,
fc,
fb,
1,
7,
1,
ff,
fe,
fd,
fa,
5,
fd,
ff,
8,
e,
8,
2,
fd,
fd,
ff,
fe,
f8,
fa,
0,
3,
0,
ff,
fd,
0,
0,
a,
ff,
5,
8,
7,
ff,
fb,
f6,
f6,
f5,
f4,
fa,
1,
ff,
1,
fc,
f5,
ee,
f9,
ff,
b,
ff,
4,
7,
7,
1,
f6,
f0,
f2,
f1,
f5,
f5,
fd,
ff,
f9,
f6,
ee,
f5,
fa,
2,
f,
0,
8,
2,
7,
6,
fd,
f7,
f6,
f7,
f5,
fb,
3,
0,
fa,
f1,
f2,
fa,
ff,
d,
17,
ff,
7,
2,
fe,
5,
fc,
fb,
f8,
fa,
f9,
fd,
fa,
fa,
f6,
f2,
fd,
ff,
e,
12,
12,
0,
3,
1,
0,
1,
f7,
fb,
f8,
f8,
0,
fd,
f8,
f9,
f8,
f9,
fa,
fe,
6,
8,
e,
0,
1,
3,
2,
1,
fa,
fa,
fc,
2,
0,
f5,
f2,
fd,
6,
6,
1,
0,
2,
4,
9,
ff,
2,
0,
2,
1,
fa,
fb,
fb,
fe,
fd,
f5,
f4,
fa,
5,
8,
4,
8,
b,
7,
7,
0,
2,
fe,
5,
5,
0,
ff,
fb,
fd,
fc,
f9,
f7,
fd,
ff,
0,
4,
8,
7,
7,
5,
0,
1,
0,
4,
6,
4,
4,
ff,
fb,
fb,
f8,
f9,
fd,
fe,
2,
7,
9,
9,
7,
4,
1,
0,
2,
3,
5,
9,
8,
2,
0,
ff,
ff,
0,
0,
2,
4,
5,
5,
4,
4,
3,
ff,
2,
6,
5,
6,
2,
2,
2,
2,
3,
1,
1,
1,
0,
3,
8,
0,
ff,
fe,
f9,
0,
4,
5,
5,
7,
ff,
ff,
fe,
0,
ff,
fe,
fe,
0,
3,
8,
6,
fd,
fd,
fe,
f9,
fb,
3,
3,
ff,
fe,
fb,
fd,
fd,
fc,
f8,
f5,
f9,
fd,
2,
7,
2,
ff,
1,
fd,
f6,
f9,
1,
1,
fb,
f7,
f5,
fa,
ff,
fe,
fb,
f5,
f8,
fc,
0,
2,
0,
fd,
0,
fb,
f1,
f4,
0,
fd,
fb,
f7,
f6,
fe,
2,
1,
fd,
fa,
ff,
fe,
f9,
2,
6,
0,
0,
fe,
f4,
f6,
ff,
0,
0,
fd,
5,
d,
2,
fd,
fc,
fa,
fa,
fb,
f7,
fd,
7,
1,
fd,
fe,
f7,
f7,
2,
3,
6,
2,
9,
8,
2,
1,
fb,
fa,
f9,
fe,
fc,
fb,
3,
3,
fa,
fe,
fb,
f9,
1,
0,
3,
ff,
2,
1,
1,
ff,
fa,
f5,
f5,
fc,
fe,
fb,
ff,
0,
fc,
fd,
ff,
ff,
ff,
fd,
ff,
5,
5,
5,
3,
2,
fe,
f4,
f3,
fb,
f8,
fb,
0,
fc,
fa,
fa,
fd,
2,
2,
fe,
fd,
1,
1,
1,
5,
3,
0,
f9,
fe,
fb,
f4,
f8,
fa,
f6,
f6,
f9,
fc,
3,
0,
ff,
fd,
0,
2,
0,
ff,
2,
4,
2,
3,
fc,
f4,
f3,
f7,
f9,
f8,
1,
6,
8,
0,
fe,
fe,
fe,
fa,
fd,
0,
8,
4,
6,
0,
fb,
f8,
fd,
5,
1,
7,
5,
c,
c,
5,
ff,
4,
fd,
fc,
fa,
fd,
5,
8,
3,
4,
3,
fe,
0,
9,
10,
10,
f,
10,
9,
7,
3,
5,
4,
fc,
f8,
f8,
fd,
7,
7,
8,
9,
5,
c,
10,
f,
c,
8,
6,
2,
5,
3,
3,
1,
fd,
f5,
f7,
fd,
3,
7,
f,
11,
e,
a,
9,
5,
3,
4,
4,
3,
5,
3,
fe,
fa,
fd,
fa,
f9,
fa,
2,
8,
d,
f,
b,
7,
6,
0,
fc,
3,
0,
1,
2,
2,
fc,
f6,
f6,
f7,
f9,
fc,
1,
7,
c,
b,
e,
9,
5,
fc,
fc,
ff,
ff,
ff,
1,
2,
ff,
fc,
fa,
fb,
fb,
fe,
2,
4,
8,
6,
6,
4,
ff,
fe,
fe,
fe,
0,
1,
ff,
0,
1,
4,
3,
0,
4,
5,
3,
4,
2,
ff,
fe,
f9,
fe,
ff,
0,
1,
fe,
f8,
fa,
0,
2,
3,
2,
fc,
fd,
fa,
fe,
3,
2,
fe,
fa,
f4,
fa,
0,
3,
4,
2,
f9,
fa,
1,
3,
3,
fc,
f5,
fa,
f8,
fb,
7,
6,
0,
f2,
f2,
fe,
8,
8,
d,
b,
ff,
f7,
2,
4,
0,
f6,
f3,
f6,
fe,
1,
7,
5,
fc,
ee,
ee,
ff,
5,
2,
a,
b,
5,
f9,
2,
0,
fa,
f2,
f4,
f3,
fe,
3,
5,
3,
fb,
f3,
f6,
ff,
4,
fb,
fd,
3,
5,
fa,
3,
2,
f9,
f2,
f0,
f6,
1,
a,
8,
7,
fe,
fa,
f9,
ff,
5,
fe,
fc,
1,
0,
ff,
2,
0,
f5,
ee,
ee,
fb,
b,
13,
a,
4,
fb,
fb,
f8,
fe,
2,
4,
f7,
0,
fc,
fd,
ff,
ff,
f6,
ee,
eb,
fa,
12,
16,
8,
fe,
f6,
f4,
f8,
fb,
fe,
2,
fc,
fe,
0,
0,
0,
0,
fe,
f9,
ea,
fa,
e,
15,
7,
fd,
f6,
f3,
f8,
f8,
fb,
ff,
ff,
fd,
4,
4,
4,
5,
ff,
f4,
ea,
f8,
d,
15,
8,
0,
f7,
f6,
fa,
fb,
2,
fe,
f9,
fb,
2,
2,
4,
6,
3,
f8,
e7,
f7,
f,
13,
c,
3,
f6,
f6,
f7,
fa,
fb,
f8,
fa,
fb,
1,
ff,
3,
9,
4,
f6,
ea,
f9,
c,
1c,
c,
fb,
f4,
fb,
fb,
ff,
fd,
fe,
2,
2,
2,
2,
6,
c,
5,
f6,
f0,
f5,
5,
17,
d,
f9,
f9,
0,
0,
fc,
fb,
fd,
0,
3,
2,
4,
5,
6,
3,
f8,
ee,
f1,
2,
b,
6,
fc,
fc,
3,
4,
fd,
fa,
fc,
fc,
fa,
ff,
1,
7,
5,
fd,
f4,
ee,
f4,
3,
5,
3,
4,
ff,
1,
2,
0,
0,
fe,
f8,
fa,
fe,
fd,
7,
8,
ff,
f7,
f5,
fd,
3,
6,
3,
6,
7,
c,
b,
8,
5,
fc,
fa,
0,
ff,
fe,
4,
6,
fe,
fc,
fc,
1,
5,
4,
2,
3,
7,
a,
d,
8,
1,
fa,
fe,
fe,
ff,
fd,
2,
2,
ff,
fe,
0,
2,
4,
3,
fe,
fd,
3,
7,
9,
6,
0,
ff,
0,
0,
ff,
fe,
ff,
3,
8,
8,
8,
1,
1,
0,
fd,
f9,
f9,
f7,
f8,
fc,
fc,
fb,
f9,
fb,
ff,
4,
8,
4,
8,
a,
5,
3,
6,
2,
fb,
f6,
f7,
fb,
fd,
0,
0,
fd,
fa,
fc,
fb,
ff,
6,
6,
8,
8,
6,
a,
a,
2,
f7,
f6,
f8,
fa,
fe,
1,
ff,
0,
fd,
fa,
f5,
f7,
fc,
7,
7,
b,
a,
b,
c,
0,
f6,
f7,
f9,
fc,
fb,
fa,
fb,
fd,
0,
0,
f7,
f4,
f9,
4,
3,
7,
3,
f,
10,
0,
eb,
ed,
f7,
1,
1,
fb,
f8,
0,
1,
2,
ff,
f9,
f9,
1,
fd,
fc,
1,
10,
e,
fa,
ec,
eb,
f9,
3,
2,
f9,
f9,
4,
5,
0,
0,
fc,
1,
f9,
f7,
4,
e,
14,
f,
f3,
ec,
ef,
0,
a,
4,
f6,
ff,
3,
3,
fc,
0,
0,
4,
f3,
f3,
a,
1e,
18,
d,
fb,
f0,
f7,
4,
9,
0,
f9,
fe,
fa,
fa,
fa,
fc,
ff,
1,
ef,
ee,
6,
13,
17,
10,
2,
f7,
2,
7,
6,
1,
fc,
f8,
f2,
f7,
fc,
ff,
fb,
fd,
ed,
ee,
ff,
4,
10,
f,
3,
fe,
a,
3,
1,
fe,
fa,
f9,
f7,
fb,
fc,
fe,
fd,
ff,
f2,
eb,
ee,
f4,
5,
10,
d,
5,
9,
7,
fc,
f5,
f6,
f2,
fd,
0,
f9,
fd,
fa,
f9,
f6,
ee,
ef,
f0,
fb,
6,
9,
8,
a,
f,
4,
6,
0,
ff,
4,
fa,
f3,
f5,
f7,
f7,
fa,
f5,
f2,
f0,
f4,
f9,
fe,
2,
3,
3,
5,
1,
fd,
2,
6,
0,
f8,
f8,
f8,
fa,
fb,
fa,
f3,
f4,
f5,
f5,
fb,
2,
ff,
fc,
3,
3,
7,
b,
9,
3,
fc,
fa,
fb,
fb,
fd,
fc,
f8,
f8,
f9,
fa,
ff,
3,
0,
fd,
1,
6,
8,
b,
6,
1,
1,
fb,
fd,
fa,
0,
fc,
fc,
fb,
fb,
fc,
fd,
ff,
fc,
fb,
ff,
8,
b,
7,
4,
1,
0,
f9,
f7,
fa,
ff,
fa,
f7,
f6,
fb,
fe,
fc,
fd,
fa,
fa,
fb,
2,
4,
4,
6,
0,
fc,
fb,
fc,
fc,
ff,
fb,
f8,
f5,
f8,
fb,
fb,
fb,
fc,
fc,
fd,
fe,
0,
2,
3,
0,
fe,
fe,
ff,
0,
ff,
6,
a,
b,
b,
3,
f9,
f2,
f2,
f4,
f6,
f9,
fb,
f8,
f7,
fc,
fe,
ff,
fd,
3,
0,
8,
9,
9,
5,
fd,
f1,
e9,
ee,
f7,
fe,
1,
fd,
fa,
fa,
fc,
0,
0,
fa,
0,
3,
9,
a,
5,
0,
f3,
e4,
e0,
ed,
fe,
6,
6,
fc,
fd,
fe,
0,
2,
3,
f7,
fd,
5,
9,
8,
9,
6,
f1,
e2,
e5,
f4,
b,
b,
4,
ff,
fc,
fc,
fe,
1,
2,
f8,
1,
8,
c,
e,
13,
7,
f4,
e5,
ee,
fd,
10,
e,
3,
fc,
fa,
f3,
f8,
3,
ff,
f6,
fe,
b,
e,
e,
18,
8,
eb,
df,
f0,
4,
e,
b,
fe,
f6,
f4,
f0,
fb,
3,
3,
f7,
fc,
10,
f,
12,
16,
6,
f0,
e6,
f2,
7,
e,
7,
fd,
f4,
f7,
fb,
fe,
4,
2,
fd,
1,
b,
b,
c,
f,
3,
f9,
f1,
fd,
3,
1,
3,
ff,
f9,
fa,
ff,
fe,
1,
2,
fe,
9,
b,
fe,
3,
3,
3,
ff,
fa,
fb,
2,
ff,
fe,
3,
fb,
f6,
f3,
f2,
f9,
fe,
fe,
9,
7,
fb,
2,
fc,
fc,
fb,
ff,
f9,
ff,
f9,
f7,
fd,
fa,
f2,
ed,
f2,
f8,
fe,
0,
7,
7,
fb,
ff,
f9,
f7,
fc,
6,
3,
fb,
fd,
f9,
f8,
f7,
f4,
f5,
3,
5,
3,
4,
fa,
ff,
fb,
fc,
f9,
fd,
3,
4,
ff,
fa,
f9,
f7,
f6,
f9,
f6,
fe,
9,
a,
5,
ff,
f6,
fc,
fa,
fc,
fe,
0,
0,
ff,
fb,
f8,
fa,
ff,
f7,
f8,
ff,
ff,
3,
8,
6,
fe,
fb,
fe,
f7,
f8,
fa,
fc,
fb,
f9,
f5,
f8,
f7,
f8,
fa,
fc,
0,
4,
4,
2,
0,
fe,
f8,
fe,
f8,
f8,
fc,
f8,
f6,
f4,
f5,
f8,
f8,
fa,
fc,
1,
2,
ff,
3,
1,
ff,
f5,
fa,
0,
fb,
f8,
fa,
f9,
f6,
f7,
f6,
f6,
fb,
fd,
2,
4,
4,
3,
6,
3,
fc,
f5,
fb,
ff,
fe,
f9,
fa,
fb,
fd,
ff,
fd,
fb,
fc,
fe,
0,
2,
3,
1,
6,
2,
1,
ff,
fe,
0,
fe,
fd,
fc,
fd,
fe,
ff,
0,
fe,
fb,
fc,
fe,
3,
4,
3,
5,
4,
2,
1,
1,
1,
ff,
1,
2,
0,
fe,
fd,
fc,
fb,
fb,
fc,
fb,
fc,
ff,
fe,
fd,
fd,
fe,
6,
c,
d,
7,
1,
2,
ff,
fc,
fb,
fc,
fc,
fd,
fe,
fd,
fa,
fa,
f9,
fa,
f9,
f8,
ff,
5,
7,
8,
3,
3,
fe,
fa,
fb,
ff,
1,
0,
fe,
fb,
fb,
f9,
f7,
f9,
f9,
f8,
fe,
3,
4,
3,
5,
4,
ff,
fa,
fd,
0,
5,
1,
fe,
fd,
fe,
fd,
fa,
f8,
f5,
f7,
fd,
0,
6,
2,
8,
7,
1,
fb,
fc,
ff,
3,
2,
1,
ff,
0,
fe,
fc,
f4,
f5,
f8,
fe,
5,
9,
6,
9,
5,
fb,
f8,
f7,
fa,
0,
ff,
ff,
0,
1,
ff,
fb,
f4,
f3,
fa,
3,
9,
c,
7,
9,
4,
fa,
f7,
fa,
fa,
fd,
ff,
0,
3,
4,
ff,
f8,
f2,
f0,
fd,
8,
c,
9,
1,
8,
9,
fe,
f7,
f9,
fd,
fd,
fc,
fe,
3,
2,
fb,
f7,
f3,
f3,
1,
9,
b,
8,
0,
a,
b,
0,
fc,
fd,
fb,
fd,
f9,
fb,
0,
2,
fa,
f9,
f5,
fb,
5,
8,
4,
5,
fe,
c,
b,
2,
fd,
fe,
ff,
fd,
f9,
fa,
fb,
fd,
fd,
fc,
fa,
1,
4,
1,
ff,
3,
0,
8,
b,
4,
0,
4,
3,
0,
fb,
f8,
f6,
f6,
fa,
f8,
f7,
fe,
fe,
fd,
0,
1,
1,
7,
9,
5,
2,
4,
5,
4,
2,
fc,
fa,
f8,
f8,
fd,
fe,
fe,
ff,
1,
2,
3,
3,
9,
b,
7,
2,
1,
0,
fc,
1,
0,
ff,
fc,
fc,
1,
2,
1,
3,
7,
3,
2,
1,
6,
7,
4,
1,
fc,
fc,
fc,
2,
3,
2,
1,
0,
3,
4,
4,
4,
4,
4,
2,
0,
3,
5,
4,
ff,
ff,
2,
4,
6,
3,
0,
ff,
1,
0,
fe,
ff,
2,
5,
2,
0,
fe,
0,
3,
4,
0,
2,
6,
7,
4,
1,
0,
2,
ff,
fe,
fc,
fe,
0,
0,
fe,
fe,
ff,
ff,
1,
2,
1,
5,
7,
5,
1,
fd,
fd,
0,
2,
0,
fd,
ff,
ff,
fd,
fd,
fe,
ff,
fe,
fe,
ff,
1,
2,
2,
2,
0,
fd,
fc,
ff,
1,
ff,
fd,
fe,
fe,
fd,
fe,
ff,
0,
ff,
4,
3,
fd,
fb,
fb,
f8,
fa,
fb,
ff,
4,
2,
0,
ff,
fc,
fb,
ff,
3,
0,
fe,
ff,
2,
fd,
f9,
f9,
fd,
fe,
fe,
ff,
0,
fd,
f7,
f5,
f9,
f8,
fc,
2,
3,
2,
ff,
fe,
1,
ff,
fa,
f7,
ff,
fe,
1,
fd,
fc,
f9,
f6,
f5,
f8,
f6,
fa,
fd,
fe,
fe,
ff,
fc,
0,
0,
fe,
fb,
ff,
0,
fd,
f9,
f8,
f8,
fa,
fb,
fd,
fa,
f8,
fc,
fa,
f9,
fb,
fb,
0,
0,
fe,
0,
4,
1,
5,
0,
ff,
f9,
f7,
f9,
0,
fd,
f7,
ff,
ff,
f8,
f7,
fa,
fe,
0,
4,
fc,
fc,
5,
d,
7,
8,
2,
f8,
fe,
5,
fe,
fc,
5,
3,
f5,
f4,
fc,
4,
4,
f9,
f5,
f8,
2,
7,
6,
c,
3,
2,
8,
1,
4,
5,
6,
3,
fe,
0,
3,
9,
3,
fa,
f7,
0,
5,
6,
ff,
0,
f7,
fd,
a,
2,
6,
4,
4,
2,
fd,
f9,
0,
2,
0,
fb,
fe,
fc,
ff,
f4,
f9,
fd,
fa,
2,
a,
10,
9,
4,
b,
d,
4,
f9,
fd,
fa,
1,
2,
f8,
f5,
f2,
f3,
f5,
fe,
5,
8,
2,
0,
5,
b,
c,
a,
3,
1,
ff,
f7,
f5,
f5,
ef,
e8,
e8,
f4,
4,
a,
c,
9,
5,
2,
5,
8,
a,
4,
fe,
f8,
f8,
f7,
ee,
ef,
ee,
ec,
ed,
fb,
5,
7,
5,
ff,
fe,
fe,
1,
6,
2,
0,
f8,
f6,
fa,
f8,
f4,
f5,
f2,
f2,
f7,
ff,
6,
6,
7,
fd,
fb,
2,
2,
4,
1,
ff,
fc,
fb,
fa,
f9,
f7,
f5,
f3,
f7,
fa,
0,
6,
6,
6,
0,
2,
ff,
fd,
fd,
2,
ff,
fa,
f9,
fb,
f8,
f6,
f6,
f5,
fb,
fe,
ff,
7,
5,
3,
1,
4,
fe,
fe,
fd,
1,
fd,
f8,
fa,
fc,
fa,
f7,
f7,
f4,
f7,
fd,
0,
4,
5,
3,
4,
3,
2,
2,
2,
ff,
f9,
f5,
f7,
fb,
fb,
f9,
f6,
f3,
f8,
fc,
fd,
1,
5,
5,
9,
5,
2,
1,
0,
ff,
fa,
f6,
f8,
fc,
fc,
fb,
fa,
f8,
fa,
f9,
fc,
1,
5,
a,
a,
3,
3,
1,
0,
fe,
f9,
f9,
fb,
fd,
ff,
0,
ff,
fd,
fd,
ff,
3,
7,
9,
7,
2,
fe,
fd,
fe,
fe,
ff,
0,
2,
2,
2,
ff,
0,
ff,
fd,
fe,
1,
5,
8,
b,
7,
2,
fe,
fd,
0,
1,
2,
3,
3,
3,
3,
0,
0,
fe,
fd,
ff,
2,
6,
9,
b,
7,
1,
fe,
ff,
3,
5,
4,
2,
0,
ff,
2,
1,
0,
fe,
ff,
2,
4,
9,
b,
d,
b,
4,
ff,
1,
5,
8,
7,
3,
fe,
fe,
1,
1,
0,
ff,
2,
4,
6,
c,
11,
12,
b,
4,
1,
3,
8,
b,
a,
6,
2,
0,
3,
4,
1,
4,
6,
6,
8,
f,
13,
e,
5,
0,
1,
3,
9,
d,
b,
7,
3,
2,
6,
9,
3,
8,
a,
a,
f,
12,
10,
8,
0,
fe,
1,
5,
a,
f,
a,
8,
5,
4,
9,
c,
3,
9,
c,
e,
10,
10,
b,
7,
4,
4,
7,
9,
b,
c,
9,
8,
7,
5,
8,
b,
3,
8,
d,
f,
f,
e,
9,
7,
8,
a,
b,
b,
b,
a,
9,
8,
5,
3,
6,
8,
0,
6,
10,
13,
f,
a,
5,
4,
a,
10,
e,
d,
c,
b,
7,
3,
1,
1,
3,
5,
ff,
3,
10,
14,
f,
c,
a,
9,
e,
13,
10,
10,
d,
7,
1,
0,
ff,
0,
2,
4,
fe,
0,
d,
10,
10,
12,
13,
11,
11,
10,
10,
d,
6,
1,
0,
ff,
fe,
ff,
1,
4,
fe,
ff,
8,
d,
10,
14,
14,
f,
c,
d,
b,
6,
0,
fd,
ff,
0,
ff,
fe,
ff,
2,
fd,
fd,
1,
7,
a,
c,
b,
a,
a,
7,
4,
1,
fe,
ff,
1,
2,
0,
ff,
ff,
1,
fd,
fa,
fc,
0,
1,
3,
4,
9,
8,
4,
0,
fe,
fd,
0,
1,
0,
0,
0,
0,
1,
fc,
fa,
fa,
fc,
fe,
0,
5,
9,
8,
4,
0,
fd,
fc,
fe,
ff,
ff,
0,
0,
0,
1,
fd,
fa,
f9,
fa,
fe,
3,
7,
a,
8,
4,
0,
fe,
fd,
ff,
0,
0,
0,
0,
1,
1,
fe,
fa,
f9,
fb,
ff,
3,
6,
7,
6,
2,
ff,
fe,
fe,
fe,
0,
1,
1,
0,
1,
1,
ff,
0,
2,
1,
fc,
fc,
ff,
fe,
fd,
fd,
fe,
ff,
ff,
fd,
f8,
f7,
f9,
fb,
0,
5,
b,
0,
1,
fe,
fb,
fc,
ff,
fd,
fd,
fd,
fd,
ff,
ff,
fa,
f6,
f4,
f7,
f7,
fd,
3,
a,
0,
0,
fe,
fb,
fc,
fe,
fc,
fd,
fc,
fd,
ff,
fe,
fa,
f5,
f4,
f6,
f6,
f8,
fc,
ff,
ff,
1,
fe,
fb,
fb,
fd,
fc,
fc,
fa,
fd,
3,
0,
fd,
f9,
f4,
f8,
f9,
fb,
fc,
fa,
ff,
1,
0,
ff,
fe,
ff,
fb,
f9,
fc,
fe,
3,
2,
0,
fc,
f8,
fc,
fd,
fe,
fd,
fc,
0,
ff,
0,
fc,
0,
fd,
f9,
f8,
fa,
fd,
1,
2,
1,
fe,
fa,
fd,
1,
fe,
fd,
fc,
1,
4,
1,
fe,
0,
fb,
f8,
f5,
f4,
f9,
1,
5,
2,
fc,
fa,
0,
1,
1,
fd,
f7,
2,
6,
3,
fc,
0,
fe,
fa,
f5,
f1,
f9,
2,
7,
4,
fe,
ff,
2,
6,
ff,
fb,
f5,
3,
6,
2,
fd,
1,
fd,
fb,
f4,
f0,
fc,
7,
8,
5,
ff,
0,
4,
4,
fb,
f6,
f9,
3,
5,
2,
0,
4,
ff,
f9,
f2,
f9,
2,
6,
4,
1,
3,
5,
0,
f9,
f2,
f9,
fc,
1,
2,
3,
6,
6,
ff,
fc,
f8,
fe,
0,
ff,
0,
2,
3,
0,
f9,
f2,
f4,
fb,
fb,
fe,
fe,
8,
9,
7,
4,
2,
3,
fd,
fc,
1,
1,
ff,
2,
ff,
f9,
f4,
f6,
fc,
fa,
ff,
fd,
8,
7,
8,
6,
3,
3,
1,
fd,
fe,
0,
ff,
fd,
fa,
f7,
f7,
fa,
f9,
fc,
fd,
fa,
7,
c,
c,
8,
5,
6,
ff,
fb,
ff,
fe,
fd,
fb,
f9,
f9,
fa,
fb,
fb,
fc,
fb,
f5,
0,
6,
8,
7,
8,
8,
1,
fd,
ff,
0,
fd,
fc,
fc,
fc,
fc,
fb,
fc,
fd,
fc,
f5,
f8,
fd,
5,
5,
7,
6,
0,
ff,
ff,
1,
0,
fe,
fd,
fd,
fc,
fb,
fd,
fd,
fd,
f8,
f8,
fd,
5,
8,
7,
4,
0,
ff,
ff,
1,
ff,
fe,
fe,
fd,
fc,
fc,
fe,
ff,
fe,
fa,
f8,
fc,
2,
2,
1,
1,
0,
ff,
ff,
0,
ff,
fe,
fd,
fc,
fd,
fe,
ff,
fe,
ff,
1,
3,
2,
3,
1,
ff,
fc,
fa,
f9,
f8,
fd,
0,
fd,
fa,
fe,
4,
2,
0,
fd,
3,
1,
2,
0,
fe,
fc,
fd,
fb,
f9,
f9,
f8,
fb,
fc,
f7,
f9,
fc,
0,
fb,
fd,
f8,
0,
0,
ff,
fd,
fb,
fd,
1,
fe,
f9,
f6,
f8,
f9,
f8,
f5,
f7,
fc,
fc,
fb,
fe,
fa,
fe,
ff,
fd,
fb,
fd,
2,
1,
fb,
f7,
f9,
f6,
f4,
f3,
f4,
f6,
fa,
fb,
fa,
fa,
fe,
ff,
fe,
fb,
fb,
fe,
7,
9,
fe,
fd,
0,
f9,
f4,
f3,
f4,
f4,
f9,
f9,
fb,
fd,
ff,
7,
ff,
fb,
fa,
fd,
3,
0,
f6,
f7,
fe,
1,
fe,
fa,
f4,
f1,
fb,
f8,
fb,
0,
1,
a,
2,
fd,
fd,
2,
1,
f5,
e9,
ed,
fe,
6,
4,
f9,
f1,
f3,
f9,
fb,
fe,
1,
fc,
0,
1,
0,
1,
0,
fe,
f4,
e9,
f7,
7,
c,
ff,
f5,
f5,
f9,
fc,
fe,
ff,
fc,
f9,
fc,
2,
fc,
fc,
0,
fb,
ee,
f0,
a,
1a,
7,
f7,
f4,
f8,
fa,
ff,
ff,
fd,
f7,
f9,
ff,
5,
f9,
fb,
ff,
f6,
f5,
2,
1a,
18,
0,
f7,
f3,
fb,
fd,
3,
1,
f8,
f7,
fe,
5,
8,
f9,
fb,
0,
fd,
3,
10,
19,
b,
f9,
f5,
f6,
fc,
1,
4,
3,
fa,
f9,
fe,
0,
3,
0,
ff,
ff,
5,
e,
15,
19,
9,
fd,
f8,
f6,
ff,
7,
5,
3,
fb,
fb,
0,
fe,
7,
7,
1,
ff,
7,
c,
15,
14,
7,
fc,
f4,
f7,
1,
6,
7,
4,
ff,
0,
fe,
fe,
5,
8,
6,
c,
b,
10,
13,
b,
fb,
f6,
f5,
fe,
7,
b,
9,
3,
0,
2,
0,
fd,
3,
6,
7,
9,
c,
e,
a,
ff,
f5,
f7,
fd,
3,
7,
5,
3,
2,
2,
fe,
fb,
fb,
ff,
3,
6,
3,
7,
6,
0,
f8,
f5,
fa,
ff,
1,
1,
ff,
ff,
fd,
f9,
f7,
f8,
fb,
fe,
ff,
ff,
ff,
1,
ff,
fe,
f9,
f8,
f9,
fd,
ff,
0,
fe,
fb,
f6,
f3,
f4,
f9,
fb,
fd,
fe,
fd,
fc,
fa,
fc,
fb,
f9,
fb,
fb,
fc,
fe,
fe,
fd,
fa,
f8,
f7,
f9,
fd,
ff,
ff,
1,
ff,
fc,
f8,
f9,
fa,
fb,
fb,
f6,
f9,
fc,
0,
4,
b,
4,
fe,
fc,
fb,
ff,
fc,
2,
0,
fc,
f9,
fa,
fc,
fc,
fa,
fc,
fc,
0,
2,
5,
5,
7,
4,
4,
fe,
fd,
fd,
4,
3,
fe,
fc,
fa,
f9,
fb,
f9,
1,
2,
6,
4,
6,
9,
a,
5,
3,
3,
ff,
0,
7,
5,
fe,
fc,
fd,
fc,
fb,
fa,
ff,
1,
7,
6,
5,
8,
5,
0,
fd,
0,
5,
2,
8,
3,
fa,
fc,
1,
ff,
fd,
fa,
ff,
0,
3,
4,
8,
a,
fd,
fc,
f9,
0,
8,
3,
6,
1,
fd,
fd,
fe,
fd,
ff,
f6,
fd,
0,
6,
6,
b,
8,
fd,
fb,
f5,
f7,
3,
2,
6,
4,
fd,
fa,
f6,
f8,
f7,
f4,
f9,
2,
8,
1,
8,
6,
4,
f9,
f1,
fb,
0,
fe,
ff,
ff,
fa,
f6,
f5,
f1,
f1,
ed,
f9,
8,
4,
4,
9,
b,
6,
fc,
f4,
fd,
fb,
f7,
f7,
fa,
f5,
f4,
f5,
f1,
f2,
f2,
fe,
1,
ff,
a,
12,
16,
d,
3,
fe,
f8,
ef,
f8,
f0,
fa,
f9,
f6,
f7,
f5,
f5,
f2,
f6,
ff,
3,
e,
1d,
14,
a,
a,
fe,
f3,
f0,
f8,
f4,
fb,
ff,
fb,
fb,
fa,
fc,
fc,
fc,
fd,
3,
b,
16,
f,
10,
8,
fc,
f6,
f5,
f7,
fb,
fd,
fd,
ff,
fc,
f6,
ff,
fe,
fa,
f8,
fb,
8,
10,
d,
10,
4,
f6,
f4,
f2,
f4,
0,
0,
f9,
f7,
f8,
fb,
3,
0,
fd,
fb,
fd,
fe,
6,
11,
14,
4,
fb,
f2,
f0,
f2,
0,
1,
f8,
f6,
fd,
fe,
4,
8,
4,
0,
fc,
2,
9,
d,
12,
2,
fb,
f6,
f4,
f4,
1,
1,
f9,
f9,
fa,
0,
5,
6,
5,
fc,
f9,
2,
d,
e,
9,
ff,
fb,
fb,
f9,
f6,
fe,
fc,
f9,
fa,
f5,
fd,
2,
3,
3,
ff,
fe,
6,
10,
14,
a,
1,
fd,
ff,
fc,
fa,
fe,
f9,
f9,
fc,
f7,
fa,
fb,
fd,
3,
4,
5,
7,
b,
e,
7,
2,
ff,
0,
fd,
fb,
ff,
fb,
f9,
f8,
f9,
f6,
f5,
fa,
fe,
7,
8,
9,
d,
8,
9,
6,
2,
2,
fe,
fd,
ff,
fb,
f8,
f3,
f5,
f9,
f9,
f8,
fa,
fe,
2,
2,
1,
ff,
0,
3,
2,
fe,
fc,
fb,
fd,
fa,
f3,
f1,
f1,
f3,
f3,
f7,
f9,
fc,
fe,
2,
5,
1,
2,
1,
ff,
fb,
f9,
fb,
fe,
f7,
f0,
ee,
f0,
ef,
f1,
f6,
f7,
f9,
fd,
2,
7,
7,
5,
5,
6,
ff,
fb,
fa,
1,
f8,
f2,
f0,
f9,
ff,
2,
8,
ff,
fa,
ff,
ff,
4,
1,
0,
2,
5,
3,
4,
fb,
2,
f9,
fa,
fc,
b,
b,
10,
f,
6,
4,
4,
0,
1,
fb,
fa,
fe,
4,
ff,
1,
6,
7,
1,
8,
10,
17,
1e,
1c,
17,
d,
b,
8,
a,
4,
fd,
fb,
fd,
3,
4,
4,
8,
a,
7,
c,
14,
f,
a,
9,
a,
8,
a,
1,
5,
2,
3,
1,
3,
4,
5,
1,
4,
8,
c,
8,
4,
f7,
f0,
f1,
ef,
f3,
ff,
fa,
fd,
1,
2,
0,
0,
1,
fe,
2,
3,
5,
7,
fe,
f7,
ed,
e7,
e9,
e9,
f4,
f9,
fd,
fe,
0,
fc,
ff,
1,
0,
fb,
1,
fd,
6,
ff,
f4,
e8,
ea,
ee,
f2,
fd,
fe,
fe,
4,
0,
fd,
fa,
f4,
f2,
f4,
fa,
0,
5,
2,
f9,
f6,
ed,
f1,
fb,
5,
4,
2,
ff,
fb,
4,
0,
f6,
f4,
f5,
f2,
fa,
fe,
1,
4,
f7,
f8,
fa,
ff,
3,
3,
5,
1,
ff,
ff,
6,
1,
fb,
fd,
f9,
f9,
f8,
ff,
f8,
f9,
f5,
f9,
2,
d,
6,
0,
fd,
fd,
fe,
3,
4,
3,
0,
8,
a,
5,
1,
2,
f9,
f4,
f9,
fd,
2,
8,
3,
fb,
fc,
fd,
1,
7,
4,
ff,
ff,
4,
1,
1,
1,
ff,
fc,
f8,
0,
1,
fc,
fd,
fe,
ff,
fc,
fa,
6,
8,
6,
fd,
fb,
fd,
fe,
fc,
fb,
fb,
f6,
f9,
4,
4,
2,
2,
4,
2,
fc,
fd,
3,
4,
1,
fc,
fa,
fb,
fb,
f8,
f9,
f9,
fa,
fd,
4,
6,
7,
4,
0,
fc,
f9,
fa,
4,
2,
1,
fe,
fc,
fc,
f9,
fc,
fc,
fc,
fc,
fe,
3,
7,
8,
3,
fd,
fb,
fa,
fe,
2,
fe,
ff,
fe,
fd,
fe,
fc,
fc,
fc,
fe,
fe,
ff,
ff,
ff,
ff,
fe,
ff,
1,
3,
5,
4,
0,
f6,
f5,
f7,
f4,
f2,
f9,
0,
3,
2,
4,
fe,
ff,
fd,
fb,
fc,
0,
4,
4,
4,
f8,
f4,
f6,
f6,
f7,
fc,
0,
4,
6,
4,
2,
ff,
fd,
fa,
fa,
fc,
3,
3,
2,
8,
fb,
f6,
f5,
fa,
0,
5,
4,
6,
2,
6,
4,
1,
fc,
fa,
fc,
fe,
0,
1,
4,
6,
1,
f9,
f6,
fd,
2,
9,
3,
1,
1,
4,
7,
f9,
fe,
ff,
0,
fe,
fd,
0,
2,
6,
5,
fa,
f6,
f6,
fa,
6,
5,
1,
2,
5,
5,
fb,
2,
2,
2,
f9,
fb,
1,
4,
2,
f4,
f2,
fb,
2,
f9,
1,
7,
2,
4,
1,
2,
fd,
1,
7,
1,
f9,
fe,
4,
2,
f6,
eb,
f2,
4,
8,
1,
6,
5,
6,
6,
ff,
fc,
fa,
0,
7,
fe,
fb,
6,
6,
fb,
f2,
ec,
f7,
b,
b,
6,
c,
9,
4,
3,
fb,
f4,
fc,
ff,
1,
2,
4,
4,
fd,
f3,
ef,
f2,
2,
e,
7,
3,
9,
1,
f9,
fe,
f4,
f4,
f9,
1,
7,
f,
a,
4,
fc,
ec,
eb,
f7,
6,
d,
9,
1,
0,
f7,
fb,
fc,
f2,
f3,
f8,
2,
8,
10,
9,
0,
f7,
e6,
e9,
4,
13,
13,
d,
4,
f7,
ee,
fa,
fd,
fb,
f5,
ff,
fe,
ff,
9,
0,
f9,
ef,
e5,
f9,
10,
16,
17,
c,
ff,
f5,
f7,
4,
5,
fe,
fd,
3,
fe,
ff,
4,
ff,
f9,
f1,
fa,
c,
10,
11,
7,
fe,
f4,
f0,
fc,
5,
6,
3,
3,
6,
0,
2,
fc,
fe,
fe,
5,
b,
11,
12,
c,
fd,
f7,
f4,
f8,
fb,
2,
1,
fd,
fe,
1,
0,
2,
fe,
1,
fd,
9,
c,
f,
7,
4,
fd,
f3,
f1,
f5,
f8,
fb,
fc,
fb,
fe,
0,
fe,
4,
2,
6,
e,
f,
9,
4,
2,
0,
f5,
f0,
f3,
f9,
fb,
fb,
fb,
ff,
fd,
ff,
ff,
fe,
1,
6,
11,
13,
b,
4,
2,
fd,
f7,
f7,
f9,
fc,
ff,
ff,
fe,
ff,
ff,
2,
0,
fd,
0,
5,
5,
9,
4,
ff,
0,
f9,
f6,
f6,
f9,
fd,
fe,
ff,
ff,
fd,
ff,
1,
ff,
fe,
fc,
fc,
fe,
fe,
fc,
fd,
0,
ff,
1,
2,
fe,
fc,
fe,
fd,
fc,
fc,
ff,
ff,
fd,
fe,
fc,
ff,
ff,
fd,
fd,
fd,
fe,
fe,
ff,
ff,
0,
fe,
fc,
fd,
fa,
f9,
fc,
fd,
fb,
fc,
fe,
1,
1,
fe,
fd,
ff,
ff,
ff,
fe,
ff,
2,
0,
0,
1,
3,
2,
fe,
fd,
fd,
fd,
1,
0,
fe,
fe,
fd,
1,
1,
0,
ff,
2,
3,
2,
2,
5,
5,
8,
3,
ff,
ff,
ff,
2,
fe,
fe,
fc,
fd,
0,
ff,
fd,
fe,
4,
4,
3,
6,
8,
9,
7,
1,
ff,
ff,
fe,
3,
ff,
fe,
0,
2,
0,
fd,
ff,
fd,
1,
2,
2,
3,
3,
5,
2,
3,
2,
0,
fe,
fe,
fe,
ff,
3,
ff,
fe,
fe,
fd,
fe,
fe,
0,
1,
ff,
1,
2,
0,
5,
9,
3,
fc,
f9,
fc,
1,
1,
f9,
f5,
fd,
0,
fe,
fa,
fb,
fd,
fc,
ff,
fe,
ff,
7,
9,
6,
fd,
fd,
3,
8,
0,
f3,
f6,
ff,
fe,
fa,
f9,
fd,
0,
0,
0,
ff,
1,
7,
7,
5,
0,
4,
8,
9,
3,
f7,
f8,
ff,
fd,
fc,
fc,
fe,
0,
ff,
1,
0,
2,
5,
9,
5,
5,
9,
7,
c,
3,
f6,
f6,
fd,
fe,
fd,
ff,
1,
1,
ff,
0,
fe,
ff,
2,
8,
2,
7,
b,
7,
7,
fb,
f0,
f3,
fb,
0,
fe,
fe,
0,
fe,
fd,
fc,
fd,
fe,
4,
5,
3,
a,
a,
6,
2,
f6,
f0,
f3,
fa,
0,
fe,
fe,
0,
fd,
0,
fe,
fd,
ff,
3,
4,
2,
a,
8,
6,
1,
f7,
f0,
f1,
f9,
fe,
ff,
fc,
fb,
fc,
fd,
fc,
fb,
fd,
1,
4,
2,
8,
b,
5,
fd,
f3,
ed,
f0,
f4,
fb,
ff,
ff,
fd,
fc,
fe,
ff,
ff,
ff,
5,
5,
3,
7,
9,
1,
f8,
f1,
ec,
ee,
f2,
fa,
fd,
fd,
ff,
fe,
ff,
ff,
0,
4,
8,
5,
1,
3,
6,
3,
fa,
f2,
ef,
f0,
f3,
f7,
fc,
fe,
fd,
ff,
1,
ff,
3,
6,
6,
2,
1,
2,
5,
4,
ff,
fa,
f7,
f7,
f7,
fa,
fd,
fd,
fd,
ff,
1,
2,
4,
5,
3,
2,
1,
ff,
0,
ff,
fc,
fa,
fb,
fb,
fb,
fa,
f9,
fb,
fc,
fd,
fb,
f9,
fb,
fd,
0,
ff,
fe,
3,
ff,
fe,
f9,
f6,
f8,
f7,
f7,
f6,
f8,
fb,
fa,
f9,
f6,
f6,
f9,
fb,
1,
3,
1,
5,
ff,
fd,
f9,
f6,
f4,
f6,
f7,
f9,
fb,
fe,
fe,
fb,
f3,
f0,
f5,
fb,
5,
7,
2,
6,
ff,
fd,
f8,
f4,
f7,
f7,
f6,
f8,
ff,
7,
9,
ff,
f5,
ef,
ec,
f5,
ff,
4,
2,
7,
1,
0,
f9,
f9,
fa,
f9,
f7,
fb,
1,
8,
9,
4,
ff,
f1,
ee,
f6,
ff,
7,
b,
f,
5,
1,
fb,
fe,
ff,
f7,
f6,
f9,
fa,
ff,
4,
3,
2,
f6,
f0,
f4,
fd,
9,
14,
11,
6,
0,
fe,
fd,
0,
f9,
f8,
f5,
fb,
6,
a,
a,
b,
f7,
ed,
f2,
f9,
8,
d,
7,
3,
6,
8,
4,
ff,
fa,
f8,
fd,
3,
b,
a,
6,
6,
f9,
ec,
f4,
3,
9,
a,
5,
1,
5,
7,
4,
1,
fd,
fc,
fc,
1,
7,
5,
ff,
ff,
f4,
f4,
fc,
2,
7,
4,
4,
3,
5,
1,
fd,
1,
fe,
ff,
f8,
f9,
fc,
fa,
fc,
fb,
f6,
fd,
3,
5,
4,
3,
4,
fd,
a,
4,
7,
c,
5,
ff,
f6,
ef,
f5,
fb,
f8,
f6,
fb,
6,
7,
0,
fe,
fe,
ff,
ff,
8,
5,
b,
f,
a,
0,
fd,
f6,
f7,
fb,
fa,
fe,
9,
c,
6,
ff,
f9,
fe,
fc,
0,
f9,
1,
9,
7,
2,
f9,
fc,
ff,
fa,
f9,
fa,
3,
d,
11,
b,
0,
f9,
f7,
fa,
fd,
f8,
fc,
4,
0,
fc,
fa,
f7,
f9,
fa,
f7,
fa,
ff,
5,
6,
ff,
fa,
f5,
f7,
fb,
fa,
ff,
2,
5,
4,
2,
1,
f8,
f9,
f9,
fa,
0,
0,
0,
fd,
fb,
f7,
f4,
f8,
fd,
fc,
fe,
2,
2,
4,
0,
fe,
fa,
f7,
fa,
fc,
fc,
fb,
fc,
fa,
f6,
f5,
f6,
fa,
fe,
1,
4,
3,
0,
0,
1,
ff,
fe,
fc,
fb,
fc,
fd,
fe,
fb,
fa,
f8,
f8,
fa,
fd,
fe,
1,
4,
3,
2,
2,
0,
ff,
0,
ff,
ff,
ff,
ff,
fe,
fc,
fa,
fb,
fb,
fc,
fe,
ff,
ff,
ff,
fe,
fc,
fb,
fc,
fd,
fc,
fd,
0,
ff,
fe,
fe,
fd,
fd,
ff,
fe,
6,
3,
3,
fe,
fe,
fc,
f9,
fa,
fa,
fb,
fb,
fb,
ff,
fe,
fe,
ff,
f9,
fc,
fc,
ff,
3,
1,
4,
ff,
fc,
f6,
f6,
f7,
f8,
fa,
fa,
fa,
fc,
5,
6,
0,
f9,
ff,
fd,
0,
2,
0,
1,
5,
f8,
f2,
f0,
f3,
f9,
f8,
f9,
fd,
2,
b,
7,
2,
fe,
fe,
0,
2,
2,
2,
3,
7,
f5,
ef,
eb,
f1,
f6,
f7,
f8,
f6,
fb,
ff,
0,
fc,
fe,
3,
8,
6,
6,
4,
0,
8,
f5,
ee,
ef,
f7,
f3,
f1,
f4,
f3,
f8,
f9,
f7,
fe,
4,
8,
c,
5,
2,
fc,
0,
7,
f7,
f0,
f4,
ff,
fb,
f7,
fb,
fd,
2,
fe,
fd,
5,
6,
3,
3,
2,
fe,
f5,
fe,
9,
fc,
f6,
f9,
5,
7,
3,
4,
6,
3,
fb,
ff,
8,
9,
9,
a,
6,
fc,
fe,
2,
3,
fe,
fc,
4,
c,
5,
5,
4,
1,
6,
1,
6,
c,
e,
e,
b,
2,
0,
fe,
5,
0,
4,
ff,
1,
4,
4,
2,
fd,
ff,
fd,
f6,
f6,
f5,
f8,
f6,
fb,
fc,
1,
ff,
fd,
fe,
1,
fc,
fd,
fe,
fd,
fe,
fa,
1,
f9,
f2,
f4,
f6,
f4,
f4,
f5,
fd,
fe,
fc,
fe,
2,
0,
1,
3,
fe,
1,
6,
4,
0,
fc,
f7,
f4,
f3,
ef,
ee,
fb,
f9,
fa,
fc,
0,
3,
ff,
0,
9,
2,
4,
7,
4,
5,
f6,
ee,
f3,
f6,
ef,
f2,
fe,
fa,
f8,
fd,
ff,
ff,
fe,
6,
7,
3,
4,
1,
1,
fc,
f6,
f9,
f8,
f6,
f1,
f5,
fe,
fc,
fa,
fb,
fb,
fd,
ff,
7,
9,
1,
fe,
fc,
fc,
fc,
ff,
0,
fc,
f7,
f5,
f8,
fe,
fb,
fa,
fb,
fa,
fd,
ff,
3,
ff,
1,
ff,
fd,
1,
2,
3,
ff,
fc,
f8,
f8,
f9,
fd,
fb,
f9,
fa,
fb,
fc,
0,
3,
fe,
fc,
fa,
0,
5,
8,
4,
fe,
fb,
f9,
f9,
fa,
f9,
fa,
fa,
fb,
fd,
fe,
2,
1,
2,
3,
3,
6,
a,
c,
7,
ff,
fc,
fb,
fc,
fc,
fc,
fd,
fd,
fd,
ff,
ff,
ff,
3,
4,
1,
ff,
ff,
ff,
fb,
fc,
fe,
fe,
ff,
fe,
fd,
fc,
fb,
fd,
1,
3,
1,
ff,
2,
0,
fe,
fe,
0,
ff,
fc,
fc,
fe,
fe,
fd,
fe,
fe,
fc,
fa,
fc,
fe,
4,
0,
fc,
ff,
fc,
fd,
fd,
0,
fe,
fc,
fa,
ff,
1,
7,
5,
0,
fb,
fa,
fb,
fc,
4,
1,
f7,
fc,
f9,
fd,
4,
4,
0,
fa,
fc,
2,
6,
9,
a,
1,
fd,
fd,
0,
1,
1,
fd,
f6,
fb,
fd,
0,
7,
7,
0,
ff,
2,
7,
2,
5,
1,
fc,
f9,
f6,
fb,
0,
0,
fa,
f5,
f9,
fc,
2,
6,
2,
2,
4,
9,
6,
1,
fd,
fa,
f2,
eb,
e7,
f0,
fb,
fb,
fb,
f8,
fb,
fe,
ff,
5,
1,
0,
2,
0,
2,
ff,
fb,
f7,
ea,
e9,
e3,
ea,
f9,
fb,
fc,
1,
3,
0,
fe,
fe,
4,
5,
3,
fb,
f6,
f0,
f5,
f8,
f2,
f0,
ed,
f3,
f7,
f8,
f9,
f8,
2,
4,
ff,
2,
3,
5,
1,
fa,
f8,
f4,
f9,
fd,
3,
6,
3,
3,
fe,
fa,
fa,
f7,
4,
7,
0,
fe,
0,
4,
1,
fc,
1,
2,
1,
fe,
ff,
a,
f,
12,
c,
6,
2,
fd,
8,
4,
fe,
ff,
fa,
f8,
fa,
fc,
fe,
1,
1,
1,
fb,
fd,
2,
13,
11,
5,
ff,
fe,
2,
ff,
fd,
fc,
fc,
f7,
f7,
f8,
f6,
fa,
fd,
fb,
f4,
f6,
ff,
a,
10,
3,
9,
9,
fe,
fa,
fa,
f8,
f4,
f0,
ef,
f1,
f5,
f7,
f8,
fb,
f9,
f8,
2,
9,
d,
9,
c,
5,
fe,
fa,
f7,
f7,
f6,
f4,
f5,
f8,
fa,
fa,
fa,
f8,
f8,
f9,
5,
c,
c,
b,
9,
4,
fd,
f9,
f7,
f9,
f9,
f9,
f9,
fb,
fd,
fd,
fd,
fb,
fa,
fb,
6,
a,
7,
9,
9,
3,
fe,
fb,
fa,
fb,
fb,
fb,
fc,
fd,
fe,
fe,
fe,
fd,
fd,
fe,
4,
3,
4,
6,
4,
1,
fe,
fd,
fd,
fd,
fc,
fc,
fd,
fe,
fe,
ff,
fe,
fd,
fd,
fe,
ff,
ff,
ff,
fe,
ff,
0,
ff,
fe,
fe,
fe,
fd,
fd,
fd,
ff,
ff,
fe,
fe,
fd,
fc,
fc,
fd,
ff,
ff,
fe,
ff,
ff,
ff,
0,
ff,
fe,
fd,
fd,
fb,
fb,
fe,
fe,
fd,
fd,
fc,
fd,
0,
3,
7,
8,
6,
6,
1,
0,
ff,
fd,
fc,
fa,
f9,
fe,
fe,
fe,
f8,
f6,
f3,
f8,
fb,
ff,
6,
8,
9,
8,
2,
ff,
1,
ff,
fc,
fb,
ff,
2,
2,
fe,
f9,
f4,
f6,
fc,
2,
1,
3,
7,
7,
7,
4,
fe,
0,
2,
fe,
ff,
2,
2,
0,
fd,
f8,
f4,
f8,
0,
5,
7,
7,
6,
7,
4,
0,
fe,
1,
0,
fc,
1,
5,
4,
3,
ff,
fd,
f7,
f4,
fc,
2,
a,
c,
8,
6,
2,
1,
fe,
1,
fc,
fd,
4,
2,
0,
4,
3,
ff,
f6,
f5,
f9,
ff,
a,
e,
6,
0,
0,
ff,
ff,
ff,
fd,
0,
fd,
fd,
0,
9,
5,
ff,
f7,
f4,
f9,
fe,
a,
a,
ff,
fb,
fc,
fb,
1,
ff,
fd,
1,
fd,
fb,
0,
7,
2,
fc,
f3,
f3,
f5,
fc,
5,
5,
f7,
f9,
f8,
f6,
3,
0,
2,
1,
0,
fa,
fc,
1,
fa,
f8,
f4,
f2,
f0,
f8,
3,
ff,
f7,
f7,
f7,
f6,
ff,
0,
1,
ff,
fd,
fe,
fb,
fd,
fb,
fc,
f7,
f3,
f2,
fb,
3,
1,
fe,
fe,
fb,
fa,
ff,
3,
0,
ff,
1,
2,
fd,
fe,
0,
0,
fd,
fa,
fb,
ff,
9,
c,
c,
a,
7,
4,
0,
6,
4,
1,
3,
3,
0,
ff,
2,
3,
2,
0,
fe,
0,
6,
6,
a,
c,
a,
5,
fe,
9,
7,
2,
0,
2,
ff,
ff,
fb,
fc,
fa,
fa,
0,
ff,
1,
6,
b,
e,
f,
8,
0,
8,
a,
4,
0,
fe,
0,
ff,
fc,
fb,
fc,
fc,
0,
fe,
0,
2,
8,
10,
f,
d,
3,
7,
8,
3,
ff,
ff,
fe,
ff,
fb,
fc,
fc,
fb,
fe,
fc,
fd,
fe,
4,
8,
e,
c,
1,
6,
3,
2,
fe,
ff,
fe,
fd,
fd,
fb,
fa,
f9,
fc,
fb,
fc,
fc,
0,
6,
b,
9,
1,
3,
2,
1,
ff,
fe,
fc,
fd,
fc,
fb,
f8,
f6,
f8,
f7,
f9,
fa,
ff,
4,
6,
6,
0,
1,
2,
0,
fe,
fc,
fc,
fe,
fc,
fa,
f7,
f5,
f5,
f7,
fa,
fe,
3,
6,
5,
3,
ff,
0,
2,
1,
ff,
fc,
ff,
ff,
fe,
fe,
ff,
fa,
f9,
fa,
fd,
fd,
fa,
f9,
fa,
0,
fe,
1,
1,
fd,
fb,
f9,
fe,
fd,
fd,
0,
fc,
f9,
f9,
fc,
fe,
1,
2,
ff,
ff,
0,
1,
1,
fe,
fa,
f8,
fa,
fb,
fc,
3,
6,
fd,
fb,
f9,
fb,
0,
ff,
0,
ff,
2,
1,
0,
0,
fc,
fe,
1,
3,
fe,
ff,
7,
7,
fc,
f7,
f5,
fe,
3,
2,
ff,
fe,
ff,
5,
2,
1,
ff,
1,
0,
3,
0,
3,
7,
7,
fe,
f4,
f8,
fc,
0,
1,
fd,
1,
1,
8,
4,
2,
4,
4,
ff,
f7,
f9,
fd,
3,
2,
2,
fe,
fe,
fe,
1,
1,
ff,
fd,
f6,
fa,
1,
8,
4,
7,
f9,
eb,
fa,
fd,
ff,
3,
3,
4,
1,
2,
ff,
3,
fd,
f8,
f3,
f4,
fd,
a,
7,
9,
fb,
f5,
2,
4,
2,
ff,
3,
2,
f9,
f9,
fc,
0,
fd,
f7,
f4,
fd,
1,
1,
3,
4,
3,
2,
9,
12,
c,
9,
8,
2,
fa,
fc,
0,
0,
2,
4,
ff,
ff,
ff,
fa,
8,
7,
a,
f,
1b,
21,
11,
b,
4,
2,
ff,
f8,
f7,
f8,
fd,
fa,
f9,
f7,
fb,
ff,
8,
d,
b,
11,
1e,
17,
5,
1,
1,
ff,
3,
fc,
f8,
f7,
f8,
fa,
fb,
fc,
fb,
1,
4,
9,
a,
c,
e,
5,
f5,
f6,
3,
3,
7,
ff,
fb,
f8,
f8,
fb,
fe,
fd,
fd,
fc,
0,
fe,
fc,
f9,
f6,
ed,
f1,
f9,
5,
fb,
f7,
f9,
fd,
fe,
0,
4,
2,
0,
fc,
f9,
fe,
f9,
f7,
f5,
f4,
f0,
f5,
fb,
5,
4,
f9,
f9,
0,
3,
6,
7,
2,
fa,
fb,
f8,
f4,
f3,
f1,
f0,
f0,
f2,
f9,
fd,
8,
3,
fe,
fa,
fa,
fd,
8,
4,
f7,
fb,
fe,
fa,
f5,
f0,
ee,
ee,
f1,
f7,
fb,
fe,
2,
5,
3,
1,
ff,
1,
2,
1,
fd,
3,
2,
fb,
f8,
f4,
f5,
f5,
f7,
fa,
fc,
fd,
ff,
3,
6,
3,
3,
3,
3,
2,
1,
1,
0,
fd,
fc,
f9,
f8,
f7,
f9,
fb,
fd,
fe,
0,
2,
3,
1,
2,
2,
1,
0,
0,
fe,
ff,
ff,
5,
b,
11,
d,
6,
4,
fe,
f7,
f4,
f5,
f3,
f7,
f8,
f9,
fc,
fd,
fb,
f9,
fe,
6,
7,
e,
12,
c,
5,
2,
fc,
f7,
f7,
f4,
f3,
f5,
f7,
f9,
fe,
0,
0,
fa,
f8,
3,
9,
e,
e,
a,
5,
8,
fe,
f8,
f4,
f1,
ef,
f0,
f1,
f5,
fc,
1,
5,
1,
f8,
f9,
a,
e,
13,
b,
5,
5,
fc,
fa,
f5,
f0,
ef,
ec,
ee,
f2,
f8,
fd,
4,
3,
fe,
f5,
9,
c,
16,
c,
6,
1,
fd,
fa,
f8,
f1,
eb,
ec,
f0,
f1,
fc,
1,
2,
ff,
fd,
f6,
9,
d,
14,
6,
fc,
fc,
fe,
fe,
f7,
f7,
f2,
f7,
f8,
f8,
ff,
3,
5,
ff,
fe,
0,
8,
b,
11,
a,
0,
7,
5,
fd,
f7,
f7,
fe,
fd,
f8,
fe,
fd,
3,
8,
4,
1,
3,
5,
6,
13,
b,
5,
c,
7,
fb,
f7,
1,
6,
5,
fe,
1,
1,
1,
4,
ff,
1,
7,
fc,
fb,
c,
e,
e,
c,
ff,
f4,
fd,
9,
c,
2,
fc,
fb,
f8,
fe,
1,
ff,
6,
8,
fa,
f7,
5,
10,
10,
4,
f6,
f0,
fe,
2,
4,
fe,
f8,
fb,
0,
0,
fc,
fd,
7,
a,
fa,
f7,
fd,
a,
e,
8,
fd,
f7,
6,
6,
2,
ff,
f7,
fc,
4,
3,
fc,
fd,
4,
3,
f7,
f1,
fe,
2,
9,
2,
fb,
0,
5,
9,
7,
4,
f8,
fd,
1,
fe,
f8,
fd,
6,
2,
fd,
f5,
0,
2,
4,
f7,
f6,
ff,
ff,
4,
7,
2,
ff,
ff,
1,
fe,
fe,
6,
8,
4,
fb,
f8,
fb,
4,
4,
fb,
fb,
fc,
f5,
f7,
0,
ff,
0,
4,
5,
5,
4,
8,
5,
ff,
fb,
f9,
fd,
7,
6,
2,
1,
ff,
f8,
f4,
fb,
0,
ff,
ff,
3,
8,
d,
8,
5,
0,
fc,
f9,
ff,
2,
8,
8,
5,
fd,
f6,
f6,
fd,
0,
0,
0,
6,
c,
d,
7,
3,
2,
fc,
f8,
fa,
0,
b,
d,
8,
ff,
f7,
f7,
f9,
0,
4,
5,
c,
9,
5,
1,
2,
1,
fd,
fa,
f9,
fd,
ff,
2,
0,
fd,
fb,
f8,
fc,
0,
3,
4,
6,
3,
1,
0,
1,
1,
ff,
4,
8,
4,
1,
fe,
ff,
2,
0,
fc,
fa,
f7,
f8,
fb,
fc,
fc,
fd,
fd,
f8,
fa,
ff,
5,
8,
2,
fb,
fa,
fc,
0,
fe,
fa,
f8,
f4,
f5,
fd,
0,
ff,
0,
4,
0,
fd,
ff,
7,
4,
fd,
fb,
f7,
f4,
f6,
fa,
fd,
fe,
0,
fd,
fe,
fe,
ff,
fd,
0,
4,
3,
0,
5,
3,
4,
fb,
f8,
fa,
fa,
fe,
2,
1,
5,
0,
fd,
f9,
fb,
fd,
fd,
fa,
fe,
fd,
7,
4,
2,
f7,
1,
3,
6,
7,
0,
fb,
0,
fd,
ff,
f6,
f8,
fb,
fd,
fc,
fe,
fb,
9,
6,
0,
f7,
fc,
5,
a,
d,
fe,
fc,
fd,
0,
4,
f9,
f7,
f7,
fc,
1,
fe,
1,
a,
8,
fd,
f5,
0,
a,
6,
a,
6,
5,
7,
7,
2,
ff,
f6,
f8,
fd,
fd,
fa,
ff,
7,
3,
ff,
ff,
10,
14,
13,
10,
c,
9,
8,
b,
a,
9,
5,
ff,
fd,
f5,
f6,
0,
1,
3,
fc,
a,
1d,
26,
22,
1a,
11,
6,
0,
2,
1,
5,
fc,
fa,
fb,
f4,
f8,
fe,
fe,
7,
ff,
d,
19,
1d,
11,
8,
5,
fc,
fb,
fd,
f7,
fc,
f8,
f8,
f5,
fa,
f6,
fe,
f4,
5,
ff,
3,
1,
ff,
fa,
f5,
fb,
fd,
fc,
0,
fe,
fd,
fe,
fc,
ff,
f9,
f6,
f6,
ef,
f5,
f7,
f5,
f1,
ed,
ed,
f0,
f7,
fc,
fb,
fb,
f6,
fe,
1,
fe,
fd,
f2,
f8,
2,
f4,
ee,
eb,
e6,
e4,
e6,
e8,
ef,
f5,
fa,
fb,
fd,
3,
ff,
fe,
4,
1,
fe,
5,
2,
f6,
f1,
e9,
e6,
e9,
e9,
ea,
f1,
f7,
fc,
1,
0,
2,
6,
7,
7,
3,
4,
2,
0,
f8,
f2,
f0,
ed,
ee,
ed,
ef,
f6,
f6,
fb,
ff,
1,
ff,
fd,
2,
5,
4,
0,
1,
1,
fb,
f8,
f6,
f2,
f2,
f3,
f6,
fa,
fa,
fd,
ff,
2,
3,
2,
2,
fe,
fd,
fb,
1,
2,
fd,
fa,
f9,
f6,
f6,
f8,
fb,
fc,
fc,
fe,
ff,
2,
4,
5,
5,
2,
0,
ff,
ff,
ff,
fe,
fd,
fc,
fa,
f9,
fa,
fe,
fe,
fe,
1,
2,
0,
2,
3,
3,
2,
1,
ff,
ff,
0,
ff,
ff,
0,
1,
3,
4,
4,
2,
3,
5,
7,
4,
3,
4,
3,
ff,
1,
1,
3,
3,
0,
0,
0,
0,
4,
4,
2,
0,
0,
2,
5,
9,
12,
14,
11,
d,
a,
3,
4,
5,
1,
1,
0,
0,
0,
3,
1,
fe,
0,
5,
e,
14,
14,
16,
11,
11,
c,
5,
1,
3,
1,
2,
1,
fe,
2,
ff,
fe,
fc,
4,
11,
13,
c,
6,
1,
0,
5,
b,
a,
4,
0,
1,
1,
2,
1,
3,
f8,
f7,
fa,
6,
7,
3,
fc,
f4,
ef,
f2,
fa,
6,
c,
7,
ff,
1,
1,
0,
0,
0,
fa,
f9,
fc,
fe,
fe,
f7,
f6,
f0,
f2,
f5,
f9,
3,
5,
4,
ff,
fd,
0,
ff,
fb,
fc,
fc,
fa,
ff,
f8,
f8,
f4,
f4,
f4,
f9,
fd,
0,
2,
6,
ff,
fc,
fc,
0,
ff,
fb,
fe,
fc,
1,
fa,
f6,
f7,
f5,
f7,
fa,
fe,
3,
3,
2,
3,
f9,
fd,
0,
fe,
2,
fb,
f8,
ff,
fb,
fc,
f5,
f5,
f4,
f7,
fd,
2,
7,
5,
3,
0,
fc,
fc,
0,
fc,
0,
fa,
f9,
ff,
f7,
fb,
f7,
f4,
f6,
f9,
ff,
3,
3,
0,
fd,
ff,
fe,
fa,
ff,
ff,
0,
fb,
f9,
fe,
f7,
fa,
f7,
f7,
f9,
fe,
ff,
fe,
0,
fe,
fb,
fc,
fb,
f9,
fc,
0,
fd,
f8,
fe,
fe,
fc,
fe,
f9,
fb,
fb,
2,
fd,
fb,
fc,
fd,
fe,
fc,
fb,
fb,
fc,
fe,
fc,
fb,
1,
1,
fd,
fd,
fb,
fa,
fe,
1,
1,
ff,
ff,
0,
ff,
ff,
fb,
fb,
fa,
fc,
ff,
fe,
0,
3,
8,
1,
fb,
f5,
fb,
0,
3,
4,
4,
1,
fe,
2,
ff,
1,
fd,
fd,
fb,
ff,
fd,
fd,
6,
1,
fe,
f9,
f9,
3,
8,
9,
6,
7,
5,
6,
4,
2,
ff,
fe,
fb,
fd,
fc,
ff,
ff,
fe,
fe,
f9,
fc,
2,
5,
7,
8,
9,
9,
6,
2,
2,
1,
1,
fe,
fd,
fe,
fe,
fa,
0,
1,
0,
fe,
0,
3,
3,
8,
4,
5,
0,
1,
3,
0,
1,
1,
ff,
0,
ff,
1,
4,
8,
9,
6,
5,
0,
ff,
0,
ff,
fc,
fb,
fd,
fe,
ff,
ff,
0,
2,
7,
3,
1,
1,
2,
ff,
f8,
f4,
f6,
ee,
e9,
ec,
f7,
fe,
5,
7,
2,
3,
0,
2,
7,
5,
5,
9,
b,
5,
0,
0,
fa,
ed,
e6,
e7,
f0,
f8,
ff,
a,
6,
5,
fe,
2,
c,
d,
a,
c,
11,
e,
9,
7,
1,
f3,
e7,
e2,
ee,
fe,
4,
a,
b,
7,
fe,
2,
8,
4,
7,
b,
10,
c,
7,
9,
fe,
f5,
e8,
e1,
ed,
0,
a,
5,
4,
4,
fe,
2,
5,
0,
1,
6,
7,
4,
f,
d,
5,
fb,
e7,
db,
ee,
7,
13,
10,
9,
3,
0,
5,
0,
fc,
fc,
0,
2,
3,
f,
18,
10,
5,
e8,
da,
f0,
c,
17,
11,
8,
0,
ff,
6,
fe,
f9,
fa,
fd,
0,
0,
e,
1b,
1a,
11,
f5,
df,
eb,
3,
a,
5,
0,
ff,
fd,
ff,
fd,
f9,
fa,
fe,
fb,
fb,
d,
f,
e,
10,
3,
ee,
ed,
f7,
2,
0,
2,
5,
fe,
fd,
fb,
f8,
fd,
ff,
fb,
fa,
3,
0,
5,
c,
2,
ed,
ed,
f6,
fc,
fb,
5,
6,
1,
fe,
ff,
ff,
3,
ff,
fe,
fe,
fb,
fa,
2,
8,
fe,
f2,
ef,
f8,
fc,
fd,
fe,
2,
fe,
6,
9,
2,
2,
1,
fb,
2,
f7,
fc,
3,
ff,
fe,
fd,
fb,
fd,
fc,
fd,
fe,
0,
fe,
8,
ff,
ff,
fa,
fe,
1,
3,
f8,
1,
4,
fc,
fc,
fc,
fb,
fd,
1,
1,
ff,
fa,
1,
fc,
f6,
f9,
f8,
f4,
ff,
1,
1,
2,
fd,
fb,
fd,
fc,
fe,
5,
7,
1,
fe,
0,
fe,
f9,
fa,
f9,
f8,
f9,
0,
3,
5,
4,
f7,
f6,
fa,
1,
4,
4,
3,
fc,
fe,
fc,
fe,
fe,
fb,
f7,
fa,
1,
4,
3,
6,
1,
f9,
fa,
fd,
0,
2,
5,
fd,
fb,
fc,
fc,
fd,
fb,
f8,
fc,
fe,
1,
2,
1,
4,
4,
1,
1,
ff,
2,
2,
0,
fa,
fc,
fb,
fc,
fe,
1,
ff,
ff,
1,
4,
2,
fd,
1,
3,
4,
3,
0,
0,
0,
fd,
fe,
fc,
fc,
fd,
0,
2,
4,
4,
5,
7,
3,
fe,
fd,
fc,
fe,
0,
0,
2,
0,
2,
0,
fe,
ff,
0,
ff,
0,
0,
ff,
0,
0,
3,
1,
1,
0,
ff,
fd,
fc,
fb,
f8,
f6,
f4,
f3,
f6,
1,
c,
ff,
ff,
fd,
fe,
4,
4,
0,
5,
6,
5,
3,
1,
2,
fc,
f4,
f3,
f5,
f8,
5,
c,
ff,
0,
fe,
1,
9,
5,
2,
1,
0,
fe,
fa,
f9,
1,
fe,
f3,
f4,
f7,
fa,
3,
0,
ff,
0,
fe,
3,
8,
6,
3,
fa,
f6,
f3,
f4,
f4,
fe,
fd,
f5,
f7,
f9,
fa,
fe,
fc,
fe,
fe,
fe,
5,
9,
5,
ff,
fb,
fa,
f9,
f4,
f7,
ff,
ff,
fa,
f9,
f7,
fa,
1,
0,
fe,
fb,
fe,
1,
9,
9,
5,
3,
fc,
f3,
ed,
f2,
ff,
0,
f9,
f7,
f8,
fa,
fb,
fd,
fc,
f9,
fc,
3,
7,
d,
9,
1,
f0,
ea,
ec,
f3,
ff,
fd,
fa,
fa,
fb,
0,
fb,
f1,
fb,
f9,
fb,
5,
3,
8,
8,
fb,
eb,
ec,
f0,
f3,
f9,
fd,
0,
fc,
fd,
f8,
f2,
f0,
fa,
f4,
fd,
4,
4,
2,
fd,
f7,
f3,
f9,
fa,
fd,
fd,
ff,
2,
fc,
f7,
f2,
f1,
f2,
fa,
f1,
0,
1,
1,
fc,
f7,
fc,
0,
1,
3,
5,
1,
4,
fd,
f4,
f0,
ef,
f1,
ef,
fa,
ed,
3,
8,
fc,
fb,
1,
ff,
5,
5,
0,
0,
2,
fe,
f9,
f3,
ef,
f0,
ef,
f0,
fa,
ed,
6,
e,
5,
2,
1,
4,
4,
1,
4,
c,
9,
8,
2,
f8,
f2,
f3,
f7,
f9,
fc,
f0,
4,
c,
a,
1,
ff,
5,
7,
0,
8,
b,
2,
0,
fe,
f8,
f3,
f6,
f8,
f9,
fd,
f2,
fb,
a,
6,
4,
4,
7,
3,
1,
7,
4,
fc,
fb,
fb,
f8,
f5,
f5,
f5,
f7,
fd,
f4,
f7,
6,
8,
9,
e,
e,
5,
ff,
1,
2,
f9,
f8,
f9,
f6,
f2,
f2,
f3,
f6,
fe,
f7,
fc,
3,
6,
9,
c,
9,
fe,
fb,
fc,
1,
fb,
f8,
f7,
f5,
f5,
f6,
f8,
fa,
ff,
fa,
fa,
3,
c,
b,
4,
0,
fc,
fb,
fe,
1,
f9,
f9,
f8,
f7,
f8,
f9,
fb,
fc,
0,
fc,
f9,
0,
5,
2,
fd,
fd,
fc,
fb,
fe,
fe,
f9,
fb,
f9,
f9,
fc,
fd,
fe,
fe,
ff,
1,
2,
4,
0,
0,
0,
fb,
fa,
fe,
7,
b,
8,
7,
3,
fd,
fc,
fa,
fc,
0,
fe,
4,
a,
a,
a,
a,
2,
fe,
f9,
fe,
2,
7,
a,
7,
1,
fc,
fb,
fd,
fc,
ff,
fe,
6,
e,
e,
b,
a,
c,
a,
8,
9,
4,
3,
0,
0,
fd,
fd,
fc,
fd,
fc,
fd,
fe,
8,
f,
9,
3,
c,
f,
13,
12,
8,
ff,
ff,
fc,
f9,
f5,
f7,
f9,
fc,
ff,
fa,
fc,
9,
9,
fc,
fa,
a,
b,
d,
10,
f,
0,
fb,
f7,
f9,
f1,
f5,
f6,
f7,
fb,
f6,
f4,
7,
fd,
f1,
f0,
f6,
fa,
1,
b,
d,
4,
1,
fb,
fa,
f2,
f4,
f5,
f7,
fa,
f4,
f0,
4,
f4,
e3,
e8,
ea,
ec,
f2,
fa,
ff,
fc,
fd,
ff,
fc,
f2,
f8,
f5,
fa,
fd,
fb,
f5,
fd,
e0,
d0,
e2,
eb,
e4,
df,
e9,
f6,
f3,
f5,
0,
fd,
fa,
fd,
fa,
fd,
4,
2,
ff,
f9,
e4,
d7,
f3,
f9,
ed,
e3,
ed,
ee,
ed,
f4,
2,
6,
2,
5,
c,
b,
b,
4,
4,
f6,
eb,
f3,
7,
6,
fc,
f8,
fb,
ff,
fa,
fd,
0,
6,
1,
3,
8,
b,
6,
0,
fd,
f8,
fa,
5,
9,
b,
a,
4,
8,
9,
0,
ff,
ff,
0,
3,
5,
0,
2,
2,
2,
ff,
fa,
2,
5,
7,
3,
fe,
fe,
f8,
fb,
ff,
4,
ff,
fa,
ff,
0,
4,
9,
9,
6,
3,
fb,
1,
1,
3,
fd,
fe,
fd,
fc,
fc,
0,
fc,
f4,
fe,
3,
6,
5,
6,
6,
8,
6,
fe,
1,
2,
0,
fd,
0,
2,
fe,
ff,
fe,
4,
1,
2,
fa,
fc,
2,
4,
6,
c,
a,
1,
1,
2,
fe,
2,
6,
3,
0,
8,
a,
7,
2,
3,
0,
ff,
5,
8,
b,
9,
7,
2,
0,
2,
1,
ff,
5,
6,
5,
4,
3,
ff,
fe,
0,
ff,
2,
6,
7,
7,
6,
2,
2,
1,
2,
1,
0,
1,
1,
ff,
2,
3,
3,
4,
fe,
0,
2,
0,
ff,
1,
ff,
0,
1,
2,
5,
2,
fe,
fc,
f9,
fc,
fe,
2,
3,
3,
ff,
0,
fe,
fd,
fa,
fe,
fd,
fe,
ff,
1,
3,
4,
6,
6,
5,
6,
5,
6,
7,
2,
fe,
fe,
fd,
fd,
fc,
f5,
f6,
fa,
fd,
2,
5,
7,
7,
6,
7,
a,
6,
6,
2,
3,
2,
0,
fa,
fa,
f9,
f8,
f7,
f9,
fc,
4,
7,
8,
6,
5,
8,
8,
8,
7,
9,
c,
8,
0,
fd,
fb,
f7,
f9,
fd,
f8,
f9,
5,
7,
7,
3,
5,
7,
5,
2,
2,
a,
14,
10,
6,
4,
fc,
f6,
fe,
1,
fa,
f8,
5,
4,
fe,
fb,
3,
0,
fa,
f8,
ff,
4,
c,
d,
2,
7,
0,
f8,
fe,
fc,
0,
f9,
1,
fd,
fa,
fd,
fb,
fa,
f4,
f6,
fe,
0,
8,
8,
2,
6,
4,
3,
1,
ff,
fe,
fc,
ff,
ff,
fe,
fa,
f5,
fb,
fc,
0,
8,
9,
8,
5,
3,
4,
6,
ff,
fe,
ff,
0,
f9,
fa,
f8,
f4,
f8,
fb,
0,
4,
ff,
6,
a,
7,
6,
7,
2,
1,
fb,
f7,
fd,
f8,
f6,
f9,
f9,
f3,
fb,
3,
b,
5,
fe,
ff,
1,
3,
6,
3,
1,
ff,
fd,
1,
fd,
f5,
fa,
f6,
f9,
fa,
f8,
fd,
ff,
ff,
fa,
ff,
2,
1,
9,
c,
3,
fe,
1,
2,
f9,
f9,
fc,
f9,
fb,
fb,
f8,
f6,
f9,
f4,
f3,
fa,
1,
8,
11,
10,
9,
6,
7,
7,
0,
0,
1,
fa,
fc,
ff,
fd,
f9,
f0,
ef,
ef,
f3,
fc,
9,
12,
f,
a,
4,
1,
ff,
1,
fe,
fe,
f7,
fa,
f6,
f4,
f0,
f5,
f7,
f6,
f9,
1,
7,
9,
12,
13,
b,
4,
3,
2,
1,
3,
fc,
fa,
f4,
ed,
f2,
fa,
3,
fe,
fa,
2,
a,
c,
10,
10,
c,
8,
6,
6,
6,
6,
1,
fb,
f2,
ee,
f5,
ff,
1,
fb,
fc,
2,
7,
9,
c,
11,
e,
c,
9,
8,
6,
6,
3,
fd,
f4,
f6,
f8,
fb,
fc,
fe,
2,
5,
5,
8,
b,
f,
d,
c,
a,
8,
8,
6,
4,
0,
fe,
fc,
f9,
f8,
f9,
fb,
2,
5,
5,
3,
4,
7,
7,
8,
9,
8,
5,
4,
2,
3,
3,
fd,
f7,
f7,
f4,
f8,
ff,
5,
3,
1,
0,
ff,
6,
5,
6,
6,
3,
2,
ff,
fe,
f9,
f8,
fa,
fd,
f7,
f2,
f0,
f1,
f1,
f5,
fd,
6,
a,
12,
8,
3,
9,
2,
ff,
fe,
fb,
fe,
fe,
fd,
f7,
ec,
e7,
ea,
ee,
f3,
3,
c,
d,
10,
2,
f8,
f7,
ff,
0,
ff,
2,
7,
6,
3,
f8,
ee,
e5,
dc,
e4,
ed,
3,
10,
c,
6,
2,
fc,
f2,
f6,
1,
4,
8,
5,
5,
6,
1,
fb,
f0,
dc,
d9,
e8,
fa,
1,
6,
9,
5,
fe,
fc,
ed,
f6,
7,
4,
0,
7,
8,
9,
a,
2,
ee,
d7,
e1,
e8,
f2,
f7,
3,
7,
9,
2,
fa,
f6,
7,
b,
8,
13,
13,
14,
14,
b,
9,
fc,
f1,
ea,
ee,
f3,
4,
7,
0,
0,
5,
f9,
6,
9,
9,
b,
b,
15,
2e,
24,
16,
16,
5,
f8,
fb,
f4,
f8,
fc,
fc,
f7,
f9,
0,
ff,
fc,
ff,
6,
fd,
5,
1d,
28,
17,
b,
f,
a,
0,
ed,
f2,
f8,
fd,
0,
0,
a,
4,
f9,
1,
f7,
e0,
ea,
3,
c,
b,
7,
7,
4,
fa,
fc,
0,
fb,
f8,
fb,
1,
3,
fb,
f2,
0,
0,
f1,
ee,
f8,
6,
4,
8,
fb,
f8,
1,
0,
fe,
f8,
f6,
f8,
f8,
fa,
fe,
fb,
ff,
3,
fe,
fc,
3,
6,
f7,
fd,
fa,
fa,
f0,
f2,
f8,
1,
fc,
fe,
fd,
f9,
6,
b,
3,
5,
ff,
fd,
fe,
fe,
f8,
0,
5,
f4,
f0,
f0,
f3,
f9,
2,
4,
fa,
f2,
4,
2,
fc,
2,
8,
ff,
1,
3,
2,
3,
fa,
f4,
ed,
f7,
fb,
fa,
ff,
fb,
f2,
f5,
1,
4,
3,
6,
2,
ff,
1,
0,
8,
b,
1,
fc,
f4,
f8,
fe,
4,
7,
f9,
f6,
fb,
7,
e,
3,
fe,
1,
f9,
f5,
fd,
4,
9,
5,
1,
fc,
ff,
a,
8,
3,
fe,
f8,
fc,
8,
5,
fb,
fa,
fd,
fc,
f6,
fa,
3,
0,
fb,
fb,
f7,
fd,
1,
4,
fe,
f9,
f5,
fb,
6,
3,
fc,
f9,
fa,
fe,
3,
3,
2,
0,
fd,
fc,
fa,
fc,
fb,
fa,
f8,
f7,
f9,
fd,
6,
0,
3,
4,
6,
5,
7,
9,
5,
ff,
f9,
f8,
fd,
ff,
fd,
f9,
f9,
fb,
fd,
ff,
ff,
0,
0,
1,
5,
8,
5,
fd,
fc,
fd,
0,
fe,
fd,
1,
4,
0,
fd,
fb,
fa,
fa,
fa,
0,
0,
1,
4,
7,
1,
fb,
3,
5,
4,
3,
1,
4,
9,
5,
0,
fa,
f6,
f5,
f5,
ff,
0,
0,
1,
6,
4,
2,
9,
7,
2,
1,
4,
5,
6,
0,
1,
f9,
f5,
f6,
f2,
fe,
fd,
fd,
5,
5,
5,
1,
fe,
fe,
ff,
0,
0,
0,
2,
fa,
f9,
f9,
f6,
fa,
f3,
fd,
fa,
fd,
1,
7,
3,
f9,
fc,
0,
4,
fe,
3,
0,
ff,
fa,
f6,
f3,
f4,
f9,
f8,
fd,
fb,
1,
2,
0,
fb,
fa,
fd,
1,
0,
fd,
1,
1,
fe,
f8,
f0,
ef,
f4,
fa,
fb,
fd,
fc,
3,
0,
fd,
5,
3,
fd,
fe,
f6,
fa,
fb,
0,
f6,
f1,
f4,
fd,
4,
9,
3,
fd,
fa,
fc,
2,
0,
3,
5,
3,
0,
f1,
fa,
f9,
ff,
fe,
5,
7,
d,
16,
c,
9,
fa,
fa,
fa,
ff,
fd,
fd,
0,
1,
0,
fe,
ff,
1,
1,
9,
11,
14,
18,
12,
b,
c,
f9,
fc,
fd,
fe,
fd,
1,
fe,
1,
6,
4,
3,
a,
6,
a,
c,
9,
1,
fe,
1,
6,
fc,
fe,
fb,
0,
fe,
1,
2,
fd,
fd,
fa,
fb,
0,
3,
6,
0,
f9,
f9,
f9,
fc,
fe,
fd,
fd,
3,
8,
1,
0,
fb,
fa,
f3,
f2,
fa,
6,
3,
0,
f9,
f3,
f3,
f5,
f7,
f9,
fe,
ff,
5,
3,
1,
fd,
fb,
f8,
fc,
ff,
4,
6,
0,
fe,
f9,
f1,
f0,
f2,
f4,
f7,
ff,
0,
3,
2,
fe,
fe,
fc,
fe,
0,
1,
4,
1,
fe,
2,
ff,
fa,
f7,
f6,
f6,
f9,
1,
ff,
0,
0,
fd,
fe,
0,
ff,
fc,
ff,
1,
0,
0,
1,
1,
fd,
fa,
f9,
f9,
fa,
5,
1,
1,
0,
fe,
0,
3,
1,
fe,
2,
3,
2,
1,
ff,
fe,
fb,
fb,
fc,
fc,
fd,
2,
ff,
ff,
fd,
fd,
0,
1,
2,
ff,
0,
3,
2,
ff,
ff,
fc,
f8,
fb,
fd,
fe,
fe,
1,
ff,
ff,
fd,
fd,
fe,
fd,
fc,
fd,
2,
2,
1,
1,
ff,
fc,
fa,
fd,
ff,
ff,
ff,
ff,
4,
b,
9,
1,
fd,
2,
0,
fc,
fd,
fd,
fc,
fd,
fe,
fc,
fd,
ff,
2,
fb,
fd,
fe,
5,
a,
ff,
fa,
fd,
0,
fd,
f9,
ff,
ff,
fd,
1,
ff,
fd,
fc,
5,
8,
4,
0,
fe,
6,
5,
f9,
f3,
f6,
f5,
f5,
fa,
2,
4,
5,
4,
fd,
fc,
fe,
3,
4,
a,
8,
ff,
2,
0,
fa,
fa,
f9,
f2,
f3,
fc,
7,
5,
3,
1,
f8,
f7,
fd,
6,
6,
2,
4,
0,
3,
ff,
fd,
0,
2,
f6,
4,
d,
e,
0,
f9,
f6,
f3,
f0,
f4,
fe,
3,
fa,
f8,
f9,
6,
0,
8,
8,
f8,
fa,
8,
14,
c,
fa,
ef,
f1,
f3,
e8,
e6,
f0,
fd,
fb,
fb,
0,
a,
b,
8,
5,
ff,
2,
c,
12,
13,
5,
fb,
f9,
f5,
f3,
ee,
f9,
4,
1,
fe,
4,
b,
8,
6,
0,
7,
12,
1b,
12,
b,
1,
fb,
ff,
1,
ff,
fd,
5,
6,
f4,
f6,
fd,
fd,
ff,
fa,
ff,
7,
14,
19,
e,
5,
ff,
0,
0,
fe,
fd,
f7,
4,
6,
f8,
f7,
fd,
1,
d,
fe,
3,
10,
16,
5,
f6,
f8,
fb,
fb,
f1,
e8,
ee,
f5,
0,
fe,
0,
f9,
3,
ff,
b,
2,
ff,
4,
ff,
f1,
e6,
f2,
fe,
fc,
fb,
f7,
f6,
fc,
4,
8,
1,
f6,
0,
fb,
0,
fe,
fc,
fc,
f5,
eb,
e0,
e7,
fa,
fa,
f9,
eb,
f5,
1,
6,
4,
f9,
f7,
4,
f6,
f4,
f4,
f2,
ee,
eb,
e6,
e6,
ec,
fa,
f6,
f8,
f8,
f8,
1,
6,
4,
fe,
1,
fe,
f5,
f4,
ee,
eb,
ed,
ee,
ee,
f0,
f4,
f9,
fd,
f8,
f8,
0,
8,
7,
4,
6,
1,
0,
f7,
f2,
f2,
f0,
f2,
f2,
f4,
f9,
f8,
fb,
fb,
fa,
fa,
f8,
1,
6,
a,
6,
5,
2,
fb,
f7,
f6,
f5,
f5,
f6,
f9,
fc,
fd,
fd,
1,
ff,
2,
3,
9,
a,
8,
3,
2,
ff,
fc,
fa,
fa,
f9,
fa,
fb,
fd,
ff,
fe,
fd,
0,
4,
6,
8,
8,
9,
9,
6,
3,
ff,
fe,
fc,
fc,
fc,
fb,
fd,
ff,
0,
ff,
fe,
ff,
2,
4,
7,
5,
6,
7,
2,
1,
ff,
ff,
ff,
0,
0,
0,
0,
fe,
ff,
2,
5,
6,
5,
ff,
fc,
fc,
fd,
fd,
0,
ff,
fd,
fe,
0,
0,
0,
fe,
ff,
ff,
2,
6,
6,
7,
3,
0,
fd,
fa,
fa,
fb,
fe,
fe,
fd,
fe,
ff,
0,
1,
2,
ff,
0,
6,
8,
4,
5,
3,
4,
1,
fb,
fb,
ff,
fe,
fc,
fd,
0,
0,
1,
4,
1,
fd,
0,
7,
5,
ff,
fe,
0,
5,
2,
ff,
fc,
ff,
fd,
fb,
fa,
ff,
1,
ff,
0,
0,
fd,
ff,
ff,
fa,
f5,
f6,
fb,
4,
1,
fb,
fe,
1,
fd,
fa,
fb,
fe,
2,
2,
2,
ff,
1,
fd,
f5,
f5,
f5,
f8,
fd,
2,
0,
fb,
4,
2,
0,
fc,
fd,
fb,
3,
5,
5,
1,
ff,
f7,
f8,
fa,
f9,
fd,
ff,
ff,
0,
fe,
8,
8,
4,
fc,
fa,
fc,
1,
2,
7,
fd,
fc,
f9,
fa,
fe,
fe,
0,
0,
2,
5,
4,
9,
7,
2,
fc,
f8,
fb,
4,
1,
2,
ff,
fd,
ff,
4,
3,
0,
fc,
0,
5,
ff,
ff,
3,
0,
ff,
fa,
f8,
f8,
1,
fd,
ff,
2,
2,
8,
9,
5,
ff,
fd,
0,
0,
fd,
f9,
fc,
f7,
f6,
f7,
f6,
f9,
3,
fe,
fe,
0,
1,
4,
3,
fd,
f8,
fb,
0,
4,
3,
0,
fd,
f3,
f2,
f7,
fe,
0,
4,
0,
3,
1,
fc,
2,
2,
fc,
f8,
fa,
0,
5,
9,
8,
4,
ff,
0,
5,
7,
7,
0,
fd,
ff,
4,
0,
0,
ff,
f8,
f6,
fb,
fa,
3,
b,
b,
a,
7,
d,
b,
8,
8,
0,
fe,
ff,
1,
fe,
fe,
fd,
f7,
f8,
f8,
f6,
fa,
ff,
6,
e,
10,
d,
9,
7,
6,
ff,
0,
ff,
fe,
0,
1,
ff,
ff,
fd,
f9,
f7,
f7,
fb,
3,
7,
7,
5,
4,
1,
3,
0,
0,
fd,
fe,
0,
2,
ff,
0,
0,
ff,
fb,
f9,
f8,
fe,
0,
0,
fe,
fe,
fe,
1,
0,
0,
ff,
fe,
ff,
0,
1,
2,
1,
ff,
fd,
fc,
fa,
f9,
fb,
fb,
fd,
fc,
fd,
0,
0,
1,
1,
1,
0,
1,
2,
2,
1,
fe,
fb,
fb,
f9,
f7,
f7,
f8,
fa,
fb,
fd,
ff,
ff,
0,
1,
1,
1,
4,
5,
7,
c,
f,
10,
d,
8,
9,
4,
2,
3,
2,
1,
ff,
ff,
ff,
1,
0,
4,
3,
2,
4,
8,
a,
e,
b,
b,
9,
2,
fe,
2,
2,
2,
1,
fe,
ff,
1,
0,
1,
2,
0,
2,
3,
0,
1,
1,
4,
6,
0,
fd,
ff,
2,
3,
3,
ff,
ff,
ff,
0,
1,
ff,
1,
1,
fd,
fa,
f7,
fa,
0,
1,
ff,
fd,
fe,
1,
5,
3,
0,
fe,
ff,
1,
ff,
fd,
1,
fb,
fb,
f5,
f3,
f7,
1,
3,
ff,
fe,
fd,
0,
4,
2,
2,
ff,
0,
fe,
ff,
0,
0,
f9,
f8,
f3,
f2,
f8,
2,
3,
fc,
fd,
fc,
fe,
ff,
ff,
0,
fe,
0,
fd,
1,
1,
fe,
f8,
f7,
f4,
f2,
f9,
4,
3,
fd,
fc,
fa,
fa,
fb,
ff,
ff,
fe,
fe,
fe,
3,
2,
ff,
f8,
f6,
f6,
f4,
f7,
1,
3,
fd,
fc,
f6,
f7,
fa,
0,
fe,
fd,
fc,
ff,
2,
3,
0,
fb,
fa,
f8,
f7,
f8,
fc,
ff,
fa,
f8,
f6,
f7,
fc,
fd,
fc,
fd,
fb,
fe,
1,
2,
1,
1,
2,
ff,
fb,
f9,
fa,
f8,
f3,
f4,
f5,
f8,
fc,
fb,
fc,
fe,
fc,
ff,
ff,
1,
3,
2,
4,
1,
fe,
fa,
f8,
f1,
f2,
f3,
f5,
fb,
fb,
fa,
fb,
fe,
fd,
ff,
1,
2,
5,
3,
3,
1,
fc,
fa,
f5,
f3,
f6,
f7,
f7,
fd,
fb,
fc,
fc,
ff,
fe,
0,
1,
4,
3,
ff,
fc,
fa,
f9,
fa,
f6,
fb,
fe,
fe,
fc,
1,
0,
ff,
fe,
ff,
ff,
fe,
ff,
5,
4,
fe,
f9,
fb,
fb,
fd,
fe,
ff,
3,
3,
3,
4,
2,
1,
1,
0,
ff,
fd,
fd,
2,
6,
1,
fe,
fd,
0,
6,
6,
8,
8,
a,
a,
4,
1,
1,
5,
1,
fe,
fe,
fc,
ff,
3,
2,
0,
1,
5,
8,
a,
9,
8,
9,
4,
0,
fe,
1,
4,
1,
0,
ff,
fe,
fd,
fe,
3,
4,
5,
8,
a,
a,
a,
7,
3,
ff,
fd,
fd,
0,
2,
0,
1,
0,
ff,
0,
ff,
1,
4,
a,
b,
8,
5,
1,
0,
fb,
fc,
fd,
fd,
0,
0,
ff,
fe,
fa,
f8,
fc,
fd,
f7,
fd,
1,
1,
1,
ff,
fa,
f7,
fa,
ff,
ff,
3,
2,
fd,
fd,
fe,
fa,
fc,
1,
fb,
f3,
fb,
3,
3,
5,
0,
fa,
f3,
f4,
f9,
f6,
fa,
3,
0,
fb,
fc,
ff,
0,
3,
fb,
fb,
6,
2,
5,
0,
fe,
fc,
f7,
f7,
f7,
f5,
fa,
fd,
5,
fc,
fd,
3,
2,
ff,
ff,
3,
b,
ff,
1,
4,
3,
fe,
fe,
fb,
f6,
f0,
f2,
f8,
4,
1,
fe,
3,
2,
1,
f9,
fb,
fe,
f9,
0,
9,
c,
b,
5,
3,
fa,
f0,
f4,
0,
2,
5,
fd,
5,
1,
fd,
fa,
fc,
fb,
fb,
6,
a,
5,
6,
ff,
fd,
f1,
f4,
fb,
5,
8,
2,
fc,
1,
fe,
fa,
ff,
fc,
fb,
7,
10,
11,
8,
0,
fc,
f2,
ec,
fc,
0,
c,
2,
1,
fa,
1,
fd,
ff,
fd,
f3,
f3,
7,
8,
9,
2,
f8,
7,
1,
f6,
fd,
3,
2,
fb,
fb,
ff,
fc,
6,
7,
f9,
eb,
ee,
6,
3,
0,
1,
fc,
e,
4,
fd,
fc,
f7,
0,
fd,
fe,
2,
f6,
6,
b,
0,
e5,
e7,
7,
2,
fd,
0,
2,
a,
ff,
fa,
f6,
4,
6,
fd,
ff,
fc,
fd,
2,
14,
7,
e1,
de,
ff,
0,
f8,
ff,
ff,
1,
f9,
f7,
fb,
5,
3,
fd,
f9,
fd,
3,
10,
15,
5,
de,
db,
fb,
2,
fa,
fc,
4,
ff,
f9,
f8,
fe,
2,
fb,
ff,
f1,
fd,
ff,
f,
1e,
f,
e6,
e0,
fc,
e,
2,
8,
a,
fc,
fd,
f9,
fd,
f7,
fc,
f8,
f1,
f9,
fb,
a,
17,
c,
e1,
d8,
ec,
6,
8,
5,
3,
fe,
0,
4,
3,
1,
fa,
f7,
f9,
fc,
c,
f,
12,
0,
dd,
dc,
ea,
fd,
4,
6,
8,
7,
7,
a,
7,
ff,
ff,
fc,
ff,
0,
a,
b,
e,
fc,
e4,
e6,
f0,
fa,
fc,
fb,
fe,
0,
2,
ff,
fb,
fb,
fd,
fd,
ff,
5,
e,
a,
6,
f8,
ec,
ed,
f2,
fa,
fe,
fa,
f6,
fe,
fd,
fa,
fa,
fb,
fe,
ff,
1,
5,
a,
a,
6,
ff,
f5,
f5,
f9,
fe,
0,
2,
fe,
fd,
fc,
fc,
ff,
0,
1,
1,
0,
ff,
ff,
fe,
fd,
fc,
fc,
fb,
fb,
fc,
fd,
fd,
fa,
fa,
fc,
3,
6,
6,
3,
fe,
ff,
fe,
fd,
fb,
fb,
fa,
f9,
f9,
f9,
fb,
fc,
fd,
fc,
ff,
ff,
2,
2,
3,
1,
1,
1,
1,
fb,
fa,
f9,
f8,
f7,
f7,
f7,
f8,
f9,
fa,
ff,
2,
0,
fd,
ff,
2,
4,
6,
5,
2,
f8,
f6,
f3,
f4,
f5,
f5,
f3,
f2,
f1,
fa,
4,
1,
fb,
fe,
fe,
ff,
1,
1,
1,
2,
f5,
f3,
f1,
f2,
f1,
f1,
eb,
ef,
f7,
7,
7,
4,
1,
9,
2,
fb,
f9,
f8,
fe,
0,
f2,
ef,
ef,
f5,
f4,
f1,
f3,
fe,
b,
e,
c,
7,
7,
7,
6,
3,
ff,
fd,
f9,
fd,
f0,
f1,
f6,
f7,
f6,
f6,
fe,
d,
14,
13,
d,
8,
2,
1,
9,
a,
3,
1,
fc,
f8,
f6,
fb,
ff,
fa,
fa,
fc,
9,
11,
12,
b,
5,
f8,
f9,
fe,
2,
fe,
fc,
ff,
fb,
f7,
f7,
0,
3,
4,
fd,
1,
9,
4,
5,
ff,
f8,
f5,
f5,
fc,
0,
fc,
fd,
fe,
f9,
fd,
f8,
fd,
fe,
f8,
fc,
1,
ff,
f8,
f9,
f4,
f5,
fa,
fc,
3,
8,
3,
fa,
f8,
f9,
fb,
f8,
f8,
f7,
f9,
0,
fc,
f9,
f4,
f0,
f8,
f9,
ff,
3,
7,
b,
0,
fb,
fb,
0,
fc,
f9,
fa,
f7,
fc,
fd,
fd,
1,
fd,
f6,
fe,
2,
6,
8,
c,
5,
ff,
fe,
0,
fd,
fc,
fa,
f9,
f5,
f7,
f9,
1,
5,
fe,
0,
4,
6,
b,
e,
d,
5,
1,
fe,
fb,
f8,
fe,
1,
fc,
fa,
f9,
fc,
2,
5,
2,
0,
3,
5,
6,
b,
8,
ff,
fc,
f8,
f7,
fa,
ff,
4,
fe,
fe,
0,
ff,
1,
2,
0,
1,
3,
4,
3,
2,
fb,
f5,
f3,
f4,
fa,
fc,
ff,
4,
ff,
ff,
0,
fe,
fc,
fd,
2,
2,
ff,
fd,
fb,
f7,
f4,
f2,
f3,
f5,
